[PAD]
[UNK]
[CLS]
[SEP]
[MASK]
!
"
#
$
%
&
'
(
)
*
+
,
-
.
/
0
1
2
3
4
5
6
7
8
9
:
;
<
=
>
?
@
[
\
]
^
_
`
a
b
c
d
e
f
g
h
i
j
k
l
m
n
o
p
q
r
s
t
u
v
w
x
y
z
{
|
}
~

¡
¢
£
¤
¥
¦
§
¨
©
ª
«
¬
­
®
¯
°
±
²
³
´
µ
¶
·
¸
¹
º
»
¼
½
¾
¿
×
ß
æ
ð
÷
ø
þ
đ
ħ
ı
ĸ
ł
ŋ
œ
ƒ
ƙ
ƞ
ǀ
ǁ
ǂ
ɑ
ɔ
ə
ɛ
ɣ
ɤ
ɪ
ɳ
ɵ
ɸ
ɹ
ʃ
ʊ
ʋ
ʌ
ʟ
ʹ
ʺ
ʻ
ʼ
˂
˃
ˆ
ˇ
ˈ
ˉ
ˊ
ː
˗
˘
˙
˚
˜
˝
΄
α
β
γ
δ
ε
ζ
η
θ
ι
κ
λ
μ
ν
ξ
ο
π
ρ
ς
σ
τ
υ
φ
χ
ψ
ω
ϐ
ϑ
ϒ
ϕ
ϖ
ϰ
ϱ
ϵ
а
б
в
г
д
е
и
к
л
м
н
о
п
р
с
т
у
ф
х
ш
є
і
׳
ا
ل
و
ي
ᄋ
ᅟ
​
‍
‎
‏
‐
‑
‒
–
—
―
‖
‘
’
‚
“
”
„
†
‡
•
․
‥
…
‬
‭
‰
′
″
‴
‵
‹
›
※
‾
⁄
⁎
⁠
⁡
⁢
⁰
⁴
⁵
⁶
⁷
⁸
⁹
⁺
⁻
₀
₁
₂
₃
₄
₅
₆
₇
₈
₉
₋
€
₹
ℂ
℃
ℋ
ℏ
ℐ
ℑ
ℒ
ℓ
ℕ
№
℘
ℙ
ℛ
ℜ
ℝ
™
ℤ
ℬ
ℰ
ℱ
ℳ
ℵ
⅓
⅔
ⅰ
ⅱ
ⅲ
ⅳ
ⅴ
←
↑
→
↓
↔
↗
↦
⇀
⇄
⇆
⇌
⇑
⇒
⇓
⇔
⇝
∀
∂
∃
∅
∆
∇
∈
∊
∎
∏
∑
−
∓
∕
∖
∗
∘
∙
√
∝
∞
∠
∣
∥
∧
∨
∩
∪
∫
∬
∮
∴
∶
∷
∸
∼
∽
≃
≅
≈
≍
≔
≙
≜
≡
≤
≥
≦
≧
≪
≫
≲
≳
≺
≻
⊂
⊃
⊆
⊑
⊓
⊔
⊕
⊖
⊗
⊙
⊠
⊢
⊣
⊤
⊥
⊧
⊨
⊺
⊿
⋀
⋁
⋂
⋃
⋄
⋅
⋆
⋮
⋯
⋱
⌈
⌉
⌊
⌋
⌢
⌣
⍺
⏟
①
②
③
④
⑤
⑥
⑦
ⓡ
─
│
┬
┴
═
║
░
▒
■
□
▪
▬
▲
△
▴
▵
▶
▸
►
▼
▽
▾
▿
◆
◇
◊
○
●
◦
◯
◻
★
☆
☐
☑
♀
♂
♣
♦
♯
✓
❖
➔
➢
⟨
⟩
⟶
⧧
⧫
⨁
⩽
⩾
⪯
⪰
⫫
⿿
、
。
〈
〉
〚
〛
・
一
三
上
下
不
与
且
两
个
中
临
为
主
义
之
也
了
二
于
亚
些
亡
产
人
仅
仍
从
他
代
以
们
件
价
优
会
传
估
似
但
位
低
体
作
使
例
供
依
促
信
值
像
克
免
入
全
公
共
关
其
具
养
内
况
准
凋
减
出
分
切
列
则
初
利
别
到
制
剂
前
力
功
加
动
助
包
化
区
医
单
占
即
厄
原
参
及
双
反
发
取
受
变
口
另
可
号
各
合
吉
同
后
向
否
含
吸
周
和
响
唑
善
回
因
国
图
在
地
均
型
域
培
基
增
处
复
外
多
够
大
天
失
女
好
如
子
存
学
它
安
完
定
实
家
密
察
对
导
射
将
小
少
尚
尼
局
展
山
岁
差
已
巴
带
常
干
平
年
并
广
床
序
应
度
延
开
异
式
引
强
当
录
形
影
往
征
径
很
得
微
心
志
态
性
总
恶
患
情
意
感
成
我
或
所
手
扩
技
抑
抗
报
择
括
持
指
据
排
探
接
控
提
支
改
放
效
敏
数
文
断
新
方
族
无
日
早
时
明
是
显
晚
曲
更
替
最
月
有
服
期
未
本
术
机
来
构
析
果
染
查
标
样
核
根
案
检
模
次
正
此
步
死
殖
段
每
毒
比
氨
水
没
治
法
注
洛
活
测
液
淋
清
游
源
激
灶
点
烟
然
照
片
物
特
状
独
率
环
现
珠
理
生
用
由
甲
疗
疫
疾
病
症
瘤
癌
白
的
皮
益
目
直
相
着
研
确
磷
示
神
种
科
积
移
程
究
突
立
第
等
管
类
系
素
索
约
级
线
组
细
织
经
结
给
统
继
续
维
综
缓
缺
美
群
者
而
耐
联
肝
肺
肿
胞
胸
能
脑
腺
膜
自
至
致
良
色
节
药
获
著
蛋
融
血
行
表
被
西
要
见
观
解
计
认
论
证
评
诊
试
该
诱
调
贝
质
赛
起
越
路
转
较
达
过
近
还
这
进
述
选
通
道
部
都
配
酪
酶
酸
醇
采
重
野
量
针
铂
长
间
阳
阴
阻
降
限
院
除
随
集
需
非
面
靶
项
顺
预
首
驱
验
高
鳞
鼠
龄
ꞌ

ﬀ
ﬁ
ﬂ
ﬄ
︷
︸
﻿
（
）
＋
，
－
：
；
＜
＝
＞
［
］
～
�
𝐫
𝐱
𝒜
𝒞
𝒟
𝒢
𝒥
𝒦
𝒩
𝒪
𝒫
𝒬
𝒮
𝒯
𝒰
𝒱
𝒲
𝒳
𝒴
𝒵
𝔼
𝕀
𝕊
𝜀
𝜃
𝜖
𝟙
##r
##4
##d
##0
##1
##3
##z
##y
##j
##b
##5
##6
##∗
##w
##a
##v
##e
##n
##h
##l
##8
##9
##7
##2
##g
##c
##t
##u
##i
##p
##m
##s
##o
##f
##x
##k
##×
##μ
##≪
##δ
##⊆
##γ
##∑
##≤
##∣
##λ
##φ
##⊥
##⋅
##∘
##q
##˜
##∼
##ϕ
##θ
##−
##ß
##™
##и
##а
##м
##е
##т
##р
##∙
##≈
##α
##↑
##∆
##↓
##ζ
##®
##´
##⋯
##⁻
##°
##ρ
##→
##ø
##⌣
##∞
##的
##替
##代
##或
##助
##作
##用
##ω
##∫
##σ
##∇
##ψ
##∕
##τ
##±
##π
##⟶
##∷
##∈
##∩
##≥
##∶
##ν
##­
##β
##⊂
##ℤ
##κ
##ا
##⁡
##例
##∏
##©
##⪰
##⇔
##​
##⁢
##ˆ
##ι
##₅
##º
##内
##缺
##失
##可
##导
##致
##血
##░
##∂
##⊤
##由
##减
##组
##织
##所
##ε
##¯
##群
##细
##胞
##具
##很
##强
##自
##我
##更
##新
##能
##力
##过
##抑
##制
##肿
##瘤
##免
##疫
##和
##别
##∥
##如
##ℳ
##▲
##⋮
##⩽
##ı
##研
##究
##通
##临
##床
##观
##察
##复
##治
##ⅲ
##期
##ⅳ
##肺
##腺
##癌
##患
##者
##²
##ξ
##≡
##后
##化
##疗
##及
##靶
##向
##药
##物
##⇀
##ϑ
##现
##检
##测
##下
##限
##是
##中
##表
##达
##上
##←
##½
##ł
##χ
##³
##¨
##○
##υ
##神
##经
##𝒞
##↦
##结
##合
##阻
##与
##其
##配
##体
##ℓ
##够
##获
##得
##基
##因
##突
##变
##标
##本
##仅
##约
##⋆
##激
##酶
##路
##─
##η
##ϵ
##号
##外
##显
##子
##型
##为
##⏟
##⩾
##技
##术
##单
##准
##确
##�
##ʹ
##⁄
##к
##∨
##⊗
##段
##切
##除
##被
##认
##第
##一
##常
##耐
##相
##关
##↔
##出
##于
##了
##⿿
##抗
##提
##取
##注
##区
##域
##⊧
##学
##示
##˙
##●
##转
##录
##功
##性
##特
##异
##志
##₂
##多
##数
##接
##受
##线
##应
##对
##重
##要
##使
##∝
##𝒟
##‬
##前
##最
##广
##种
##原
##÷
##⁺
##非
##尼
##有
##效
##率
##西
##鳞
##ˇ
##质
##ⅱ
##♀
##ʺ
##主
##手
##之
##到
##∀
##存
##在
##他
##驱
##动
##机
##◦
##⊙
##指
##首
##次
##至
##死
##亡
##时
##间
##该
##据
##发
##仍
##还
##个
##度
##æ
##‏
##ς
##﻿
##病
##₃
##⊓
##∃
##⊢
##ɛ
##实
##验
##果
##野
##生
##¢
##≃
##ℜ
##⊺
##曲
##见
##图
##未
##高
##总
##大
##量
##文
##亚
##人
##克
##唑
##益
##ː
##缓
##解
##二
##当
##控
##₄
##试
##ο
##µ
##≫
##♂
##ℝ
##评
##分
##理
##类
##∧
##融
##ℑ
##比
##∖
##ℏ
##▵
##¼
##⇒
##不
##同
##将
##进
##行
##集
##‍
##√
##们
##方
##法
##以
##定
##程
##样
##来
##源
##剂
##降
##低
##展
##等
##≲
##公
##产
##选
##择
##各
##心
##立
##⇄
##善
##案
##全
##部
##统
##完
##成
##析
##⁹
##с
##形
##两
##位
##⨁
##★
##包
##˚
##开
##蛋
##白
##活
##加
##较
##著
##‎
##ħ
##ℕ
##好
##
##ꞌ
##∪
##传
##长
##优
##˘
##照
##射
##移
##凋
##⌢
##点
##并
##平
##吉
##处
##顺
##铂
##ﬂ
##€
##科
##估
##影
##像
##也
##三
##些
##素
##预
##＋
##道
##厄
##洛
##月
##无
##症
##状
##尚
##差
##≺
##⇌
##计
##片
##═
##►
##≳
##序
##甲
##共
##起
##о
##扩
##增
##会
##ℂ
##ℒ
##ℐ
##ʼ
##带
##ʊ
##早
##断
##供
##依
##│
##小
##鼠
##模
##ي
##ϒ
##干
##∬
##▪
##₁
##正
##探
##索
##节
##晚
##且
##良
##反
##微
##𝒫
##¬
##放
##ⅰ
##明
##△
##■
##ɑ
##¹
##⁶
##ℋ
##敏
##项
##似
##∅
##培
##美
##述
##诱
##ϱ
##价
##þ
##吸
##烟
##≅
##‭
##每
##周
##胸
##查
##直
##疾
##毒
##面
##年
##报
##初
##步
##≜
##管
##₇
##₀
##₋
##清
##液
##支
##持
##⋱
##ƒ
##构
##调
##ɸ
##系
##密
##感
##岁
##∊
##⊿
##需
##式
##已
##情
##意
##②
##𝜀
##˝
##水
##ℛ
##从
##₆
##环
##地
##入
##＝
##ǀ
##£
##然
##局
##ⓡ
##⁰
##响
##阳
##均
##参
##双
##
##⇆
##œ
##口
##服
##游
##□
##贝
##珠
##⊕
##件
##～
##脑
##继
##这
##΄
##续
##染
##˃
##𝒩
##天
##山
##𝒦
##ᄋ
##着
##г
##у
##л
##п
##¤
##ℰ
##利
##改
##≻
##随
##诊
##⋂
##证
##磷
##少
##⊔
##养
##括
##越
##➔
##⪯
##维
##促
##而
##灶
##延
##∓
##信
##⫫
##核
##酸
##𝒥
##ə
##皮
##根
##₉
##征
##в
##𝒜
##⋀
##态
##▾
##色
##医
##安
##ɪ
##₈
##⁵
##⁴
##˂
##给
##否
##ℵ
##膜
##ل
##ϖ
##℃
##ϰ
##≦
##目
##龄
##ˈ
##殖
##占
##℘
##联
##⁸
##国
##家
##级
##论
##针
##∴
##⇓
##⋁
##≔
##ℱ
##恶
##і
##ф
##н
##х
##𝜃
##院
##┬
##▒
##日
##积
##⊣
##┴
##𝒮
##𝒵
##≧
##义
##淋
##巴
##况
##往
##此
##赛
##ð
##值
##阴
##♯
##肝
##族
##酪
##氨
##近
##⊑
##ǂ
##ﬁ
##排
##回
##⊖
##采
##ˊ
##¦
##ĸ
##ˉ
##𝔼
##و
##引
##独
##女
##⧧
##▿
##径
##❖
##⊃
##∠
##都
##є
##没
##¥
##即
##𝒳
##⁷
##ɔ
##ŋ
##⅓
##综
##ʻ
##列
##含
##▽
##▸
##𝒱
##˗
##д
##◆
##∮
##ℙ
##⋄
##醇
##◯
##另
##ʃ
##𝒯
##ш
##⇝
##④
##⑤
##则
##≍
##𝜖
##ʌ
##¸
##ᅟ
##③
##↗
##║
##▼
##⊨
##▴
##ɹ
##ª
##ⅴ
##＜
##◊
##☆
##⊠
##б
##∸
##▶
##𝟙
##⋃
##𝐱
##𝒢
##ϐ
##ℬ
##它
##♣
##ɣ
##đ
##ﬀ
##𝕊
##♦
##¾
##𝒬
##𝒪
##𝒰
##𝐫
##✓
##⇑
##∽
##①
##＞
##⍺
##⅔
##⁠
##ﬄ
##➢
##𝕀
##ǁ
##𝒲
##№
##ɵ
##◻
##◇
##ʋ
##⑥
##ɤ
##但
##ʟ
##∎
##▬
##𝒴
##ɳ
##ƞ
##≙
##☐
##⧫
##ƙ
##⑦
##☑
##₹
th
##ti
##er
##on
##en
##es
##ed
the
##in
in
##al
##or
an
##at
of
##an
##tion
and
##ro
##it
##ar
##as
##ic
##re
##is
##el
##ent
##ec
##ing
to
##ation
##ul
##ol
##et
##om
##ac
##ur
##ig
##os
##le
##ith
##ly
st
with
##us
for
##ere
##id
##ve
con
##th
re
pro
as
##ter
##ati
al
##il
##ow
##ce
##ts
##if
ex
##am
is
##uc
##ess
##im
##ated
was
##un
##ut
were
##od
##em
that
##um
on
##ot
##ell
##ab
##oc
res
##ir
##tr
be
##ity
ac
##ion
##tic
wh
##ver
##ain
##ag
by
com
##ud
##ate
##op
##ys
##ted
or
##ad
ch
##ment
##rom
at
su
##og
us
##ib
cell
tr
##ap
##ure
de
##ng
##pl
##ant
are
pr
##igh
##vel
20
from
we
##ents
##ff
ad
im
inc
sh
##ers
##ical
##pr
##qu
##ip
##ay
##ase
this
##ine
dis
##ence
sp
##te
se
comp
stud
##iz
##ies
ind
##ign
gen
en
un
##iv
ne
##fer
le
##ch
##ore
##por
##ans
##orm
##ific
##iti
per
##ous
co
##ations
##bs
not
##yp
##ial
ph
ass
##ect
rec
pati
##ition
##enti
cells
fig
par
pre
##ther
##ens
ap
##ons
##ph
dif
##ting
sign
##ge
inter
##ich
##press
##rou
cl
can
##tiv
str
##able
##per
##ding
ha
10
cont
eff
inf
pl
##ese
##oun
##ia
trans
##ep
differ
met
##act
patients
##ors
cons
##enc
all
di
##ear
rel
et
##ary
me
bet
these
##cr
show
reg
##ased
high
am
anal
##ance
##and
which
##ach
##st
mod
##est
pos
sc
study
have
resp
resul
##vi
##erm
##olog
##ular
##ally
##age
tre
##we
##ved
prote
##na
it
##ied
##ative
##der
ev
dat
##ue
##ath
##ist
##tive
ab
spec
##ong
##ween
express
200
between
using
##roup
##oth
activ
##ast
##ection
##yl
##end
##oll
##ple
incre
##so
##ari
mic
##ected
signific
##ates
group
##ard
det
protein
##all
##ug
##pro
##ose
int
##duc
##ak
af
also
##cl
##ual
##ome
##rol
##ight
significant
##ym
data
##form
##ound
cor
he
sam
##ction
level
compar
no
##oci
analys
med
##dition
pres
ar
anti
##ory
##uld
tw
sur
used
been
more
than
##ub
after
##our
has
##ost
ag
##ide
201
##ros
##ely
##tim
bl
tim
##tin
inv
des
##ater
##port
bi
results
##ility
there
fun
may
car
acc
##ulation
19
##00
##ects
control
##ges
##ating
two
##ill
##one
##ues
figure
associ
expression
meth
incl
treat
##yst
##gr
fl
##ized
sup
other
##yn
##ech
##ution
how
but
vari
their
treatment
red
id
##action
##ond
sub
##vely
suc
##ases
##ive
both
model
man
dr
##ox
val
includ
sim
##ree
low
##ass
ca
analysis
##entr
dur
li
##cer
over
obs
one
##ct
our
##hib
dec
cr
ins
function
##iss
el
##mun
studies
##ures
up
chan
##yt
##ants
typ
##ood
gene
min
##ber
each
partic
respons
meas
obser
time
##ained
12
##ew
fact
exper
##ined
##velop
ser
es
##br
##inding
foll
##her
##tal
##out
##ile
ob
perform
form
br
##ever
##ob
##ays
em
develop
gl
##ite
##vers
follow
out
gr
mon
##cess
##ack
##ult
num
##ogen
##ystem
however
##ail
##ences
during
##pt
heal
##anc
different
indic
fr
##ix
method
##uced
##arg
##pos
##ism
##acter
##entif
repor
sug
sm
such
levels
##plic
had
##ace
##gen
system
##uct
found
health
##cc
##row
inhib
appro
under
clin
##ions
only
dise
mut
non
##ild
##ork
path
##ective
compared
##par
based
activity
##ole
##ium
associated
addition
into
15
##urr
prov
cd
##aining
##ization
gener
subs
when
##itive
##ish
##als
identif
##trib
##osis
year
##ological
##ici
##atic
def
present
end
hyp
sel
use
well
specific
ma
mm
hum
##ugh
pol
exam
op
effect
its
tum
fur
conc
rem
most
increased
col
##own
produc
##tical
##av
##ould
##gh
po
ris
##ently
11
##ential
##vious
##ane
##use
mice
immun
further
dem
shown
##ps
##fore
##tern
##inal
fir
observed
number
##crip
##agn
sec
experim
##ough
clinical
loc
##ilar
##ord
cancer
syn
##ature
determ
pot
##ulated
table
##ention
kn
##atory
sequ
##ability
similar
infl
##tively
dep
previous
mul
lik
##rough
three
##ments
first
mem
##ible
effects
risk
##ark
significantly
reported
##ities
cal
qu
##tit
disease
corre
##aph
term
so
could
##ov
higher
struct
import
##til
##yd
process
##ivid
concentr
##etr
##ency
13
##ology
##lex
performed
showed
##amm
through
where
pred
##ited
##esis
type
##ock
##ale
##ectively
bec
##ize
14
do
##osph
prim
they
##les
##ines
il
conf
human
##ains
char
##ok
##ormal
##ie
##onstr
##ured
##af
condition
##ucle
30
genes
mol
ep
##crib
age
aff
assess
sampl
##ination
25
sol
particip
pop
16
##oid
##old
response
##echan
ml
if
test
decre
fe
within
##und
grow
18
##idence
##earch
##ang
sens
research
tiss
mo
##ages
##endent
##its
mechan
##ior
mean
er
##tid
##usion
groups
tes
some
coll
##air
##ational
##tig
dna
while
prob
##uction
##ether
sugges
##tor
##ogr
24
acid
##oph
comm
those
##asm
individ
##erg
##och
##tained
##ute
proteins
total
##ider
##alu
medi
cyt
micro
ther
gre
among
##eng
occ
therap
including
evalu
related
##adi
demonstr
important
describ
199
##ort
induced
prom
requ
##ha
del
##pres
individual
bas
antib
character
##ores
main
##over
##eter
signal
##ery
set
##xim
pe
intr
years
development
##ural
ps
binding
repres
progr
who
molec
child
##otyp
##arget
dire
17
post
imp
invol
##ody
sever
target
then
increase
50
##ind
respectively
##ived
inves
phosph
##ross
##are
rate
role
predic
investig
##yc
patient
tem
poss
##ten
work
multi
inform
av
consider
##ex
lim
samples
mg
vir
sl
##roph
factors
normal
##cs
recep
##ft
##ental
complex
nucle
tumor
calc
##ms
stim
##plement
mor
dom
fre
correl
##atis
##res
##view
due
did
second
100
new
long
impro
prev
##gf
##ek
##arly
extr
diagn
line
##led
##ren
lower
00
##ified
##arge
##ron
inj
will
ox
##ause
interaction
##equ
##tics
drug
##ink
changes
same
thus
positive
prot
ran
subj
app
flu
finding
##iqu
values
mr
cap
##echn
##ement
mechanism
lab
small
care
methods
phys
##omes
disc
interv
ol
neu
provid
treated
##ily
##ise
cult
abs
##ade
alth
inhibit
although
blood
transcrip
##int
##ene
##ession
because
pathw
##eld
contr
differences
exp
mat
potential
ii
curr
##ust
##ograph
following
vis
sing
ext
comb
identified
21
##ically
frequ
##ful
##yz
growth
coun
initi
org
infection
described
##fl
##ne
techn
05
##ital
##other
pat
##ately
cases
##urs
class
neg
##ites
stand
##ins
obtained
##ice
##rop
##ption
##10
measure
##omen
beha
##ake
month
activation
mark
expos
##plet
##ves
less
need
nm
behavi
expl
##uth
##med
##ength
lead
22
##lish
##ire
peri
##oma
therefore
rele
single
##ateg
##ication
tissue
conditions
would
anim
estim
cle
sch
any
hist
##ield
standard
##ness
##cop
population
neur
chem
##asc
##oh
##tribution
without
several
statis
week
sample
vol
sym
outc
##ival
information
##ning
presence
factor
pur
hyd
##ither
##iven
##onal
##iter
approach
##ording
days
about
95
participants
lo
##uce
four
day
concl
equ
##ogn
fam
ms
##ax
surf
represent
##abol
##ylation
plasm
add
23
analyz
bre
##etic
previously
##cent
##vir
##ri
reduced
supplement
##ired
region
##itro
membr
adm
maj
design
phen
species
ro
40
##ick
fib
review
major
measured
trial
period
##ics
##round
##hip
##ced
regul
whether
mal
##ouse
findings
my
##tif
common
##ensity
##ator
##ert
included
ele
primary
should
rat
brain
children
vi
stress
##uted
rep
metabol
und
local
##ptom
aut
quan
pub
size
##ardi
direct
reve
resid
many
case
resist
women
organ
hel
caus
influ
lif
evidence
pers
sk
surv
att
dependent
surg
enh
large
##tions
##zym
##osp
##ocyt
either
range
concentration
isol
##12
value
pattern
cat
again
##oss
##ward
before
early
inflamm
##ian
##ification
##pression
os
mater
##reg
##icient
rati
models
part
sin
##ric
##ds
der
negative
multiple
mir
##istr
avail
##ving
aver
##ycl
experiments
##ty
rna
according
receptor
consist
prof
##oles
##ety
##otic
surface
complet
stat
reveal
28
qual
##aw
demonstrated
vers
##nal
conduc
containing
ir
param
bu
rece
structure
known
ret
##eptid
indep
difference
##ru
mus
lip
26
determined
therapy
synth
functional
##eth
change
fac
##arm
##tered
like
##gest
37
prol
phase
gu
cm
##aging
signaling
expressed
##ull
site
vs
##viron
pd
##ych
likely
strong
temper
cent
enzym
fem
result
##ension
transcription
current
cardi
possible
##acy
confir
hosp
suggest
months
##els
##gn
water
27
symptom
reaction
diff
relations
29
back
##vere
chrom
##erc
allow
##ifer
##ties
order
##ner
000
bar
##11
hem
sequence
##ove
##atively
analyses
##atin
##ulations
adj
##aps
cir
dose
net
est
serum
loss
given
35
membrane
decreased
bel
mit
##omic
analyzed
incub
appear
##verse
differenti
ec
radi
molecular
##vity
##asing
##ules
60
adv
particular
association
intervention
additional
distribution
##cle
might
##tan
involved
01
##lished
##ascular
hydro
##ening
down
eth
free
concentrations
nec
subjects
survival
genetic
link
being
unders
relationship
comparis
bacter
##xt
##resp
life
compon
environ
considered
##gg
fil
section
rand
against
##ung
admin
##tric
contrast
mouse
available
32
##ke
##°c
improve
characteris
since
centr
detected
solution
random
refer
##ually
general
##ae
formation
relative
##acc
##ivers
##ters
##cept
pcr
hom
very
μm
ed
##otype
##ci
enc
gluc
commun
##ount
recom
##ns
super
hep
##ables
ques
state
average
body
dim
ke
see
neuro
block
##ma
ct
sal
ci
production
support
pathway
##ca
gly
##plication
reduction
behavior
contrib
assay
##50
##eric
##ored
even
##ellular
responses
weight
rates
tra
indicated
##ulin
tak
provide
exposure
##work
##ission
##ision
overall
ratio
33
sites
area
revealed
proper
##roscop
##bers
##az
ang
here
mass
sci
virus
required
determine
family
whereas
domain
##anced
proced
phosphor
muc
medical
##ude
various
flow
48
ve
##ffer
greater
peptid
prior
mac
mediated
mix
across
sn
foc
extrac
##eters
##ets
corresp
##ocytes
##app
individuals
suppor
sus
##tors
temperature
##bl
regions
elect
##ier
via
quality
##amp
lt
##ably
##ended
##opt
hospital
##odies
psych
least
diagnos
##ule
auth
##uss
##cence
31
length
001
stimul
##tegr
constr
sw
press
cre
larg
36
##up
##iver
hypoth
independent
material
sex
volum
obj
followed
##onic
polym
##ymph
contin
##eline
##ised
##ours
##tically
kin
consistent
active
##ask
fin
separ
network
recent
left
position
##sp
##ocial
##red
##olution
identify
##opl
scre
environment
##ands
diab
##ometr
##tt
##20
##iate
##ino
inhibition
prepar
hiv
integr
mutations
frequency
nan
developed
mechanisms
sensiti
antibody
example
##ists
scale
step
above
death
34
lymph
##omy
self
##fs
clus
ach
compound
viv
presented
prac
experi
##plied
##yr
resistance
animals
##oper
lines
neurons
field
##inant
calculated
controls
hear
percent
ax
ver
cross
liver
##ynam
ul
strateg
examined
##ique
diagnosis
point
wild
promo
sum
indicate
cur
them
plasma
##elial
types
##plications
times
stage
apopt
chron
##ices
##atures
estab
score
pain
derived
vitro
vivo
bm
experimental
##tis
symptoms
te
read
performance
increasing
mutant
45
defined
conducted
##icity
go
occurr
fluores
lung
rats
mrna
rh
oxid
exc
tested
kg
bone
##utes
circ
weeks
highly
fail
five
lys
lack
univers
star
##13
observ
prolifer
les
cycl
elec
instit
regulation
oper
status
##fp
##itation
subsequ
##aneous
##iving
prec
medium
lig
collected
ill
dist
##more
effective
her
2010
##iting
right
##ient
shows
short
maxim
cod
##cin
##ergy
orig
hr
carr
correlation
##ectiv
##16
parameters
ur
provided
##nas
furthermore
##itis
magn
##onding
amp
ability
assessed
mar
outcomes
social
##ibility
program
cellular
later
focus
da
##ibr
rap
##de
light
carb
excl
repe
top
##line
approxim
baseline
heter
proble
##ols
##ces
##eu
sequences
tub
##uk
2009
valid
decrease
pair
##activ
##amin
bio
interactions
exhib
##erv
##ators
comparison
chronic
cop
##ides
record
fold
80
applied
does
bene
culture
injur
ampl
##ances
visual
38
breast
##posed
another
##lic
immune
deg
##14
##ector
evaluated
##tain
sour
2011
wt
cs
##ids
initial
imaging
achie
coh
know
##oy
muscle
##ogenesis
buffer
accur
##etes
benef
##ensive
2008
supplementary
inflammatory
##igr
systems
pressure
minim
aim
2012
volume
fat
preval
characteristics
tox
err
surgery
suggesting
pul
usa
##53
dam
antibodies
substr
selected
##otherap
##iciency
soft
displ
optim
##ography
pan
six
##ially
images
##iat
sensitivity
##ints
##ondr
detection
transf
better
pc
report
electr
success
##amine
refl
eng
##ik
compos
glucose
##vant
##ground
spectr
##bi
phot
##ler
density
##da
2007
##go
cri
impact
##ocy
##eed
variables
peak
key
amino
##abil
##oring
pa
##till
##encing
physical
##ower
genome
energy
investigated
##bp
##emia
trials
##active
statistical
transl
national
arr
##ochondr
few
transfer
##ta
42
experiment
pap
tumors
##man
question
resulting
90
ren
index
often
mortal
##me
2013
background
pathways
criter
authors
labor
##enced
tissues
properties
##ogenic
°c
##ots
##dr
continu
mortality
39
mitochondr
scores
nod
dys
discuss
limited
surve
##ustr
70
##hold
hand
nat
protoc
recogn
morph
diseases
##izing
diss
absence
fraction
##ii
##fficient
task
##usions
##ather
cogn
##ware
manag
made
events
arter
play
content
##pec
combination
##unction
interes
outcome
men
university
chann
##18
ge
poor
dm
##asis
biological
##istration
medic
cause
isolated
##nf
acute
##io
43
studied
strain
##cep
seen
elev
##mon
final
##etal
moreover
include
##17
mid
label
##ales
2006
areas
##uble
food
impair
##ling
##15
##hyd
##ochem
##ones
detail
hours
log
##ycle
##ancy
deliver
198
sem
still
measures
propor
fit
suggested
mutation
corresponding
##ledge
confirmed
##arch
incubated
##uture
diet
categ
pharm
monit
nor
##ecting
dynam
approximately
##arr
regr
ic
##urn
recently
generated
lay
##ops
secre
heart
received
male
##inc
##ising
novel
util
severe
fix
release
off
infected
suggests
kinase
##aff
##terior
load
accum
clear
##otherapy
ess
microscop
metast
tests
animal
processes
image
serv
proliferation
diabetes
act
quantit
sd
##istic
2014
plac
influence
##ture
increases
##ulf
##plant
44
conn
strains
injury
cycle
na
phosphorylation
##lor
rapid
thir
##astic
therapeu
##ulate
added
##ina
sil
##pre
structures
s1
##ems
smok
access
educ
secondary
tog
adap
altern
biom
versus
upon
transm
features
assessment
prevalence
bo
##agen
complete
affect
ref
2005
together
##tial
receptors
help
functions
75
##otid
apoptosis
##utr
##cript
##vement
cd4
training
healthy
populations
instr
expected
central
center
directly
##roc
real
inhibitor
injection
pp
wash
mc
##grad
necess
enzyme
wa
future
##he
vacc
acet
migr
colon
##yg
insulin
chall
bound
full
##tinal
##se
activated
quantif
diffic
##tle
##enting
seg
acqu
##iological
##19
clos
asp
##emb
critical
##ying
##lying
alc
lat
frag
measurements
patterns
##entially
bp
##not
##pha
produced
##ining
liter
differentiation
old
##ploy
##ographic
side
adult
youn
summ
knowledge
criteria
regression
staining
his
indicating
##ven
though
##ame
encod
adul
##orb
##tice
μg
stimulation
components
##ipp
conclusion
median
46
administration
##ld
estimated
much
software
bro
caused
distin
##rome
cytok
hs
hyper
drugs
reas
##emic
##25
##of
##ogene
young
##ont
moder
##bry
toward
molecules
peptide
taken
activities
##fact
proposed
promot
testing
facil
power
effic
hal
affected
##itu
dos
mel
way
##ga
depend
guid
rad
good
interesting
##omal
##put
along
female
catal
alcoh
glyc
able
lear
alter
##ream
epith
##40
proportion
proj
cp
intrac
ns
2004
residues
intro
##itr
dev
combined
embry
nuclear
##orph
enhanced
conte
linear
##eding
electro
47
terminal
view
ever
##tre
intensity
cere
desp
pi
##tanding
synthesis
therapeutic
points
##ytic
##otor
##operative
detect
consum
##ople
management
despite
##27
##osome
alcohol
ov
poly
manus
55
doc
##opath
allel
whole
damage
##30
consequ
##anol
pregn
alone
2015
compounds
##otypes
##pa
har
##pose
improved
resulted
yield
setting
recover
recru
therm
##inary
ra
2000
wor
##isted
glob
##oplasm
manuscript
induc
specif
relatively
evaluate
viral
dig
alg
larger
cognitive
people
don
transform
incidence
dil
##order
regulated
##ylated
iii
##ygen
understanding
mak
rt
finally
49
##orders
saf
structural
recomm
efficacy
bir
require
amount
ear
41
glut
conclusions
rather
ga
espec
matr
procedure
ey
##olar
germ
fluorescence
##gl
rs
selection
place
especially
iv
carried
##ank
cas
correlated
ng
states
cluster
characterized
established
progression
carcin
cohort
countr
degrad
μl
reference
hc
statistically
##enz
invas
evaluation
duration
reach
pm
72
predicted
##tib
assum
chemical
suppress
pt
stem
history
synd
##ogenous
##read
skin
induction
respond
ta
limit
reduce
community
disorders
essential
oste
employ
##oint
maximum
##ument
##uded
gas
host
##rote
##tine
od
supported
##ged
pbs
terms
literature
markers
air
display
cardiac
##isting
open
mes
##kn
adults
artic
##ih
particularly
match
md
map
gfp
datab
screening
2003
egf
##estern
appropr
reduc
cost
abn
means
prefer
65
##22
products
public
##ocyte
ak
promoter
percentage
##ologic
##ou
head
objective
lit
inhibitors
ds
plat
specifically
##80
capac
protocol
##ress
##ense
macroph
investigate
##hes
##anes
##olic
lipid
metabolic
cover
56
##oz
context
emerg
distinct
relevant
internal
plant
remains
atp
introduc
needed
interest
home
##eness
demonstrate
perce
hypert
americ
adjus
epid
substrate
white
##arding
##acts
cryst
hd
variation
##izes
lesions
scan
sir
subsequent
53
leading
green
memory
matrix
hy
##omer
##ires
wid
inflammation
sensitive
den
best
below
cou
having
indicates
##29
western
vascular
laboratory
bacterial
spect
##ool
sod
recomb
surgical
##urse
significance
cho
abnormal
##23
highest
##aged
knock
fas
provides
##otox
next
##24
recorded
third
overe
sle
bind
call
strength
restric
showing
difficult
por
wr
failure
##to
acids
ss
##ney
endoth
vector
sr
arg
##tex
54
source
published
processing
##icular
bios
expressing
##ief
overex
polymer
component
alpha
mitochondrial
##inated
bur
500
##duce
shif
pharmac
search
renal
interpre
underst
##atal
##ape
designed
perip
sa
oxygen
natural
assays
action
exposed
##omp
##70
concer
comple
depression
error
regard
linked
prevent
##yth
##bo
categor
phenotype
numbers
2002
mamm
##erved
##reshold
fer
##ycin
gt
mt
spati
address
bal
controlled
##inity
##stream
##ams
##set
degree
paper
prepared
variable
nf
pk
ultr
successful
conj
repro
iss
##obl
chain
subun
##asts
##ysis
what
elevated
cut
beta
regarding
##ls
gel
aden
version
contribute
rab
mutants
pass
hypothesis
color
members
implement
necessary
algor
domains
threshold
##26
algorith
##osomes
squ
hp
##ings
exerc
last
daily
she
##itude
practice
series
##arily
##rich
ventr
stable
##val
##land
appropriate
occur
tnf
older
useful
tex
peripher
reports
survey
kit
const
metabolism
sig
##21
##part
actin
##istered
plan
thick
application
64
##ateral
note
oral
onset
core
##uring
antigen
coupl
##uts
great
recurr
blue
mill
importance
##encies
##mit
situ
syndrome
ros
wide
soci
##38
96
run
##ophil
##otide
abund
materials
trig
facilit
sequencing
ion
##brid
layer
##rogen
2016
around
diam
strategies
confirm
52
##ulating
inst
education
half
induce
disorder
signals
conv
##icle
unl
##itrogen
intracellular
59
technique
fixed
ste
challen
progress
measurement
famil
diagnostic
57
substan
reli
cultured
tempor
eu
##ending
plants
quantitative
modified
capacity
2001
continuous
progn
las
until
bacteria
ub
58
angi
##uration
occurred
every
learning
located
##oxid
panel
environmental
minutes
coe
kid
event
overl
distance
agents
wall
rp
##itin
identification
double
enhance
majority
sections
##ochemical
incor
enrich
transition
olig
##uter
##k1
##ious
##istry
67
##28
rang
generation
motor
eas
##lr
targets
adoles
ens
experience
##tributed
colum
profil
similarly
origin
evolution
du
repl
##34
accumulation
basis
transport
seed
ifn
product
##by
hz
led
world
delivery
procedures
##rosis
approved
longer
hb
##gs
##ights
prost
degradation
##cted
##co
questionna
h2
gp
##eck
strategy
resolution
##iques
rob
cert
##icial
cos
chlor
51
construc
ts
approaches
specificity
dele
yet
nature
##−1
##ovascular
must
##ologies
##a1
##nt
global
##ope
certain
##orption
resistant
iso
##iatric
##mic
course
problem
##function
agre
blot
ner
cf
room
99
accuracy
direction
##aft
##tation
grade
cc
##oids
treatments
near
##thers
generally
cam
genomic
variants
strongly
##ger
purified
susp
techniques
ant
stro
epithelial
interestingly
devi
##terol
regulatory
broad
additionally
problems
forms
var
cand
conform
##omas
collection
##esized
pen
imm
marked
respir
methyl
slight
##ophag
marker
adjusted
63
##osomal
66
##take
represents
##bor
resour
exercise
attention
toler
undergo
interval
shar
examination
graph
datas
interventions
mixed
appar
ster
##eti
delay
improvement
others
##ench
labeled
mainly
electron
media
cortex
cys
channel
##ocal
panc
##ils
endothelial
##rh
physiological
sleep
np
unique
peripheral
black
##ceptib
alternative
assemb
##ometry
weak
calcium
##plicated
mental
##greg
examine
complications
gs
##isms
infections
##aa
##eration
females
##onomic
leads
underlying
##orts
achieved
candid
efficiency
intern
malign
horm
enzymes
database
noted
##apping
account
birth
stre
trend
##estinal
uptake
complexes
migration
3d
representative
##ott
##monary
cultures
susceptib
carbon
stability
late
repair
specim
responsible
prop
potentially
extent
exhibited
eight
spatial
##mediate
inhibited
reason
##57
tm
ow
produce
smoking
hydrox
currently
myc
discover
enti
##dom
little
tri
oc
countries
moderate
indeed
bil
##que
##b1
ld
causes
##tially
fibro
##acl
##argeting
school
align
pf
contribution
##umin
##ively
adip
leuk
p53
##ened
appears
far
incorpor
occurs
##iety
ann
##p1
la
institution
repeated
68
washed
services
purpose
neuronal
##ova
1a
##90
gender
##ars
##60
composition
males
developing
reproduc
interview
targeting
##yro
##alk
htt
assign
emo
sigma
85
sulf
mil
stages
make
##olved
mh
##aptic
##la
##ats
##ariate
isch
tb
intra
targeted
severity
cannot
beg
replication
s2
constit
avoid
rr
oxidative
##agon
turn
igg
03
constant
##ify
base
##oster
pancre
affinity
profile
compare
transfected
aged
coli
gal
special
neural
##ee
inser
observations
location
anx
students
##ethyl
1h
dop
##most
transplant
stained
coord
now
disru
rev
subject
upper
##enous
infer
tel
confidence
##oved
macrophages
aggreg
ligand
vit
humans
extracted
never
##idity
substit
nr
##ode
rib
contact
tag
motif
##ads
feed
manner
##urb
transcriptional
conjug
##apl
sodium
04
tool
space
removed
##position
##den
##way
stroke
lc
##ergic
bd
cytoplasm
intake
recovery
pb
##eal
##olesterol
kidney
adverse
##alian
remov
hybrid
##icians
2a
µm
associations
administered
300
atten
ful
##ash
bmi
seven
earl
irr
##art
throughout
##o2
hipp
reverse
dl
unc
##ished
highl
manu
dysfunction
grad
observation
miss
##lu
transgen
commit
estimates
tail
incubation
tc
pregnancy
##ange
manufact
##etric
simple
fusion
numer
transcript
divid
ye
perf
replac
ped
##ks
reactions
##romb
##ned
nc
fragment
transmission
vary
conserved
pg
##entional
norm
advant
brief
alb
doses
melan
##ident
adhes
text
defin
chemotherapy
##esth
peptides
cardiovascular
smaller
##any
##itch
##itional
subsequently
figures
selective
extracellular
dc
nh
##arc
formed
ht
obes
paras
rot
temporal
american
mob
possibility
basal
behavioral
unit
interf
entire
lateral
##aces
69
dimension
heterogene
pulmonary
bias
##rolog
endogenous
73
file
solid
##ocamp
##osa
once
elements
localization
conver
almost
put
segment
fram
jour
tend
mri
1999
carcinoma
62
past
##ea
diagnosed
monitoring
obesity
medicine
institute
neutr
estimate
commonly
##err
variety
find
molecule
establish
plus
underw
##cers
##elines
usually
##dle
placed
technology
##atives
making
nam
upreg
##ocard
bond
done
##ton
##ocl
safety
##entific
sufficient
remained
##gal
##trans
phosphate
##etry
##eless
ip
##ectivity
polymorph
optimal
##bial
fund
schem
unkn
##rosp
##tile
relationships
##less
close
china
word
inhibitory
axis
become
consumption
unknown
clearly
fully
mp
76
78
microscopy
radiation
##bit
##bral
pig
74
curve
hippocamp
stimulated
excluded
##ounts
convers
providing
##activity
prevention
roles
algorithm
stimuli
neutral
afric
contains
1b
cholesterol
pack
allele
fluid
frequently
underwent
gc
slow
vess
band
61
requires
termin
##medi
anterior
scientific
divers
cu
respiratory
##amide
diameter
##elet
probability
barri
reviewed
##utive
nucleotide
##gt
lum
classification
150
##37
force
akt
ca2
europ
##ata
plate
items
illustr
interfer
##ai
fav
##pase
nerve
complement
maternal
systemic
artery
secretion
prosp
maintained
mixture
exist
77
##typ
cv
altered
cytos
guidelines
##ontal
##ra
tgf
reducing
promote
extre
cb
science
contain
toxicity
fluor
decision
##esh
rich
##wise
original
project
##3k
deletion
randomized
contained
emotion
posterior
##oscop
methylation
coron
colle
correct
##onucle
conventional
enter
profiles
remain
earlier
equal
agreement
gran
europe
orth
pool
allowed
questionnaire
dynamics
hence
orient
positi
particles
advanced
##elf
##rin
##ometric
except
tetr
middle
biomark
##orn
hypertension
benefit
##ogl
ubiqu
arrow
##anch
exce
cortical
biops
check
plot
##ss
##iotic
anxiety
correspond
arch
onc
comparable
chromosome
probe
##ytes
##ighted
discussed
personal
sampling
jap
antagon
pla
nucleus
recruit
plasmid
questions
differential
column
98
systematic
fract
overexpression
##ula
document
genotype
fm
collagen
oh
variance
injected
focused
hemat
##aves
channels
##itud
investigation
heat
extern
respect
ves
trad
liqu
79
alk
cx
comparing
lact
predom
cad
##elling
isolates
lang
##ifug
spectrum
obtain
94
##54
##rose
##ectomy
emb
generate
ten
##cal
concept
cd8
predict
##inate
revers
compr
2017
##atch
rank
mb
involvement
1998
##ico
spl
1000
widely
grown
##rs
polar
##36
##itable
dp
iron
towards
mis
prostate
##rotein
fa
84
variability
yeast
##ips
descrip
magnetic
##down
attenu
3a
entr
primers
simult
cytokines
date
thromb
units
sexual
##rel
sets
plays
##ives
myel
recognition
lesion
simultaneous
gm
##ozyg
86
som
##care
ultras
cancers
proxim
remaining
detailed
completed
stabil
eye
fish
02
membranes
belie
auto
analog
##yroid
allows
recommend
slightly
understand
##sa
subc
attem
multiv
##f1
partial
regulate
##inations
depart
88
typically
hepat
attr
phyl
97
gap
2b
recombinant
##back
mode
pal
plates
ethanol
box
au
dynamic
impaired
persist
elim
regim
autophag
normalized
families
comparisons
thickness
##imer
external
##hood
##rine
pv
egfr
journal
sources
deficient
myocard
limitations
##ners
adher
87
sat
vegf
robust
t2
fed
employed
enrol
##nat
89
##group
stimulus
flex
completely
encoding
##35
excess
##c1
##obic
##idine
pairs
coding
400
##dna
efficient
reconstr
mild
##son
##irus
spectra
##gc
centrifug
acquired
##aries
parameter
living
uv
hf
mechanical
displayed
attach
manufactur
replic
consent
ce
rou
movement
##anted
divided
traum
hm
japan
ratios
counter
needs
kine
ask
reflect
healthcare
##flu
oct
rare
nanop
coronary
##ict
cis
networks
separate
antic
neut
parents
##crim
gradi
##thr
minor
71
clusters
##ples
accept
##avage
downstream
specimens
anova
fibrobl
fast
article
extract
##ella
nurs
##osin
##be
luc
liquid
197
input
developmental
subst
meta
loop
prediction
##obacter
involving
cdna
##eling
lps
behaviors
pet
mn
nt
##ows
83
http
explain
##2a
hu
##ibly
agent
##ifications
organization
##tead
subunit
root
working
polic
discrim
clinically
##ike
independ
##treated
##ili
wave
extraction
##allel
nk
fo
hypox
##inf
##reh
includes
##ectin
nmr
postoperative
transduc
##neum
bars
homolog
sirna
equival
##artic
##pressive
committe
fatty
diversity
placebo
basic
gain
typical
cn
2d
##ynth
##rec
fetal
##ah
princ
classified
service
##bal
shift
##ality
person
house
##vent
vaccine
dn
assembly
satis
veh
represented
feature
receiving
mv
##65
##uz
##aine
metastasis
##ectiveness
infants
tom
pse
cytotox
libr
instead
##wh
##pers
saline
tlr
bott
##ocation
compreh
costs
steps
strand
primarily
speed
exhibit
ast
shape
applications
##p2
matched
describe
##ortic
decl
alterations
aud
si
uk
1997
effectiveness
cy
##tration
princip
ter
retrosp
defects
subtyp
##unc
ww
arm
##lo
challenge
##eral
deviation
##fa
break
##dh
international
rabbit
##39
transpor
iden
agon
removal
##mia
occup
sds
langu
tg
variant
##acted
laser
##illary
initiation
noise
##ections
##67
spr
preparation
deriv
##activation
called
invasive
drink
none
joint
metal
aer
pseud
asym
follows
autom
##arian
##lation
m2
recip
diges
##ready
0001
south
##ogenetic
##iology
already
exch
##ging
recruitment
chromat
list
depth
spinal
soil
##tility
##ply
manufacturer
morphology
spe
inn
reactive
s3
minimum
aspects
cov
snps
py
trigger
intervals
##let
branch
experienced
extended
##eletal
medication
explained
hepatic
dietary
pneum
whose
summary
correlations
gh
##ica
120
tax
electroph
##47
##used
ethn
errors
parallel
vitamin
profession
thereby
##onia
##gan
ze
irradi
categories
identical
cyp
##gi
reson
seems
existing
inclusion
##apse
supernat
united
intermediate
##uting
onto
take
nanopartic
dend
##isition
predominant
cytokine
clon
intestinal
reag
adhesion
marg
department
programs
##ways
##1a
relation
##aria
element
##sh
resources
diabetic
##pressed
##iform
neurolog
93
##mediately
##ococ
impairment
rb
toxic
parent
##night
coefficient
acquisition
wind
##ffici
amb
4a
device
face
rest
dors
isoform
82
anesth
##entioned
height
deficiency
ib
residue
committee
immediately
supporting
mur
caspase
asth
programm
ble
dark
perme
hab
##icles
primer
switch
native
t1
recommended
filter
subgroup
hydrogen
protection
kr
atr
germany
81
predictive
##cles
appeared
informed
##oxide
thought
tp
commerc
gast
grant
vel
##tingu
##atitis
summar
rapidly
amounts
curves
92
camp
probably
ty
true
spont
achieve
hour
abundance
technologies
nutr
ko
cruc
implant
overnight
separated
polyp
viruses
spontaneous
subjected
just
prolong
##ecutive
transcripts
clinic
substrates
tryp
synaptic
ln
you
invasion
fis
##phal
tools
cath
choice
offer
##rees
perception
nodes
##irect
fluorescent
randomly
node
chol
motion
behaviour
37°c
##tenance
apparent
embryos
rod
sed
##oral
adjust
##elium
fox
unf
donor
sperm
##isation
##iph
##otr
computed
##ann
anat
##ises
maintenance
##oglob
characteristic
distingu
modification
latter
##illed
glutam
##arb
considering
##48
online
taking
assigned
accurate
intrav
let
accel
transgenic
interact
transferred
##acr
impl
regular
prospective
neigh
substantial
largely
gastric
uncle
gab
optical
participant
expect
##uls
##equate
##dehyd
splic
cerebral
250
details
interpretation
co2
sti
ring
purch
protective
chromatin
recurrence
recording
3b
##ensus
minimal
##taining
##ectal
##au
sf
##otrop
tris
vas
smo
az
apoptotic
indirect
cycles
pancreatic
language
draw
supplemented
nine
cham
depending
##ades
rn
hormone
##dm
tun
exact
##56
initially
##bre
track
introduced
cox
volt
wound
construct
traditional
dominant
precurs
knockdown
benefits
tumour
issues
##rocytes
decreases
induces
1996
κb
unclear
extracts
nacl
##cents
ck
quantified
communication
mmol
uns
csf
neutroph
instruction
longitud
##ework
cleavage
##rog
tf
independently
odds
antioxid
translation
carri
suppression
start
explore
retr
coupled
##ering
hsp
##igen
##uit
div
hydroph
dataset
identi
www
partially
fresh
defic
degrees
bottom
##acch
viability
dy
aggr
morb
##ued
fc
researchers
frequent
aa
spread
supplemental
sensor
importantly
diverse
driven
##inning
##tices
epidem
analysed
ray
bc
magnitude
##arin
illness
sv
settings
frequencies
outs
theory
susceptibility
fall
vehicle
adolescents
framework
numerous
emp
microscope
disch
twice
phenomen
array
##ordance
##ostic
extensive
metastatic
dimensional
enriched
polymerase
##acting
student
tract
ple
##ills
ranging
ensure
pyr
##ette
mitochondria
positions
feedback
mammalian
ventricular
gradient
##ohist
transfection
myocardial
##33
implementation
count
mirna
progen
biochemical
aβ
contributed
##ero
nih
compart
##isa
infil
invitrogen
bul
##utri
##cribed
deep
epis
mirnas
##hd
mi
ras
seem
##opathy
perceived
angle
##certain
ubiquitin
immunohist
##pan
extrem
transplantation
amplitude
move
distributed
gli
fragments
##portun
matter
closely
##aring
institutional
##eg
##dehyde
ech
presentation
cerv
prem
opportun
sor
eryth
91
solutions
growing
possibly
directed
tolerance
pip
gold
malignant
pathogenesis
eb
crystal
sizes
##ician
occurrence
therapies
superior
dog
phenotypes
simulation
##hr
mim
poll
prognosis
stored
##olip
##99
nad
tyros
localized
cer
compl
equivalent
distal
amplification
comput
##olytic
discre
##mp
assist
lar
veloc
micros
validated
db
immuno
##ectives
mach
pathological
marrow
definition
diffusion
e2
users
06
reporting
shr
advantage
crucial
##44
candidate
demographic
pu
##t1
own
residual
downreg
failed
##atter
aging
##thern
neon
soluble
##ectors
arterial
thor
cereb
07
facilitate
positively
igf
platform
histone
kb
nitrogen
validation
substitution
explan
oxidation
ls
goal
annot
##osen
bov
##oxyl
quantification
##asia
output
##pted
##eting
bey
staff
##olding
synthesized
expans
##onin
referred
##oprotein
##ori
##ley
asked
autophagy
reasons
forward
successfully
mature
##ema
##ihood
##atically
satisf
cord
inner
##acent
ho
psychological
##3a
longitudinal
dilution
asthma
plastic
##f2
adop
deple
##umab
inoc
cold
emph
emotional
##apped
smooth
reached
oil
##immun
loading
tree
##oration
periods
gover
maintain
briefly
burden
lv
equation
leg
regen
absol
engine
wors
##np
08
cul
measuring
ker
kda
integrated
restricted
##ky
bcl
intact
1995
##ilibr
abdom
##plate
tube
chosen
aug
absorption
aw
subset
##oked
locus
##ensions
acad
##itor
reporter
##68
mmp
nearly
lowest
##amb
variations
gamm
nuclei
seas
##essions
coverage
##ients
manif
##aper
hcv
prognostic
ovarian
##yle
neverth
abnormalities
µg
##zed
nevertheless
dd
likel
varied
atom
spectrom
##32
null
conjugated
balance
accomp
conflic
fibrosis
putative
nons
likelihood
regulating
microbi
cervical
scen
##sin
purchased
##k2
publ
dh
simulations
recognized
belong
european
thank
##000
feeding
always
chin
histological
artif
income
ure
hcc
similarity
##ember
moth
author
##31
starting
##oe
##45
catalytic
organic
##illin
##ump
heterogeneity
transient
elic
adjacent
##tition
ba
missing
##ament
dependence
##ucid
exchange
pathology
correction
snp
aimed
cytoplasmic
##inger
##rophy
##ozygous
##itone
potent
untreated
synthetic
biopsy
fiber
identity
##mark
implicated
buil
statistics
##otypic
##ophys
tasks
thre
promising
##rot
beyond
##ements
walk
##ogens
##itted
potenti
##isions
##ounted
##42
1c
interface
availability
##kin
constructed
gastro
decline
harves
theore
nov
proximal
##truct
repeat
pac
san
##ban
competi
##fil
5a
fractions
north
restor
stop
binds
influenz
recruited
signs
coc
##point
depletion
##ancies
multivariate
probes
affects
4b
td
voltage
shap
category
##olysis
sensory
acetyl
circum
foundation
nanoparticles
attributed
##uch
abdominal
dehyd
mer
art
entry
efforts
words
##ry
ligands
##utaneous
junction
comprehensive
resonance
##arged
fab
##icin
##tc
radical
thyroid
gest
modifications
2c
live
blocked
##01
kind
metabolites
elucid
beneficial
##tious
##insic
##ze
clar
logistic
s4
introduction
##bb
regional
reads
fals
square
tyrosine
hpv
retinal
qualit
fisher
scaff
suitable
lob
accompan
influenced
##h2
##oa
resection
##acer
homeost
##ipit
##pati
cla
##enchym
urine
absolute
##adder
##omers
sen
counts
occurring
physicians
retrospective
mostly
bovine
loci
issue
##cus
documented
##itory
##igible
elisa
##get
nutri
activate
hapl
ions
copy
##azole
devices
hard
infar
released
fibers
##orrh
subunits
##essive
identifying
consisted
##time
mentioned
protocols
leaf
itself
created
fibroblasts
transformation
changed
##iotics
item
amplified
formal
outside
crystall
##alam
##r1
salt
expansion
regulates
adherence
µl
vac
hair
##odes
implications
ig
particle
##organ
stor
respective
mothers
monitored
wnt
economic
flag
give
mab
melanoma
gamma
offs
##ensities
##ush
motiv
##opic
conserv
##sw
inhibits
household
mtor
##ometer
lacking
scenari
monocl
exon
african
charge
peaks
screen
##55
pathogen
##po
##ellow
computer
genotypes
morphological
amyl
biot
determination
dual
ranged
workers
biosynth
million
##ermal
caps
schiz
team
feas
biomarkers
urinary
consensus
involves
processed
utilized
consequences
modeling
fgf
delayed
mapping
xen
drop
dispers
viol
acceler
tit
##omics
##aster
##69
egg
##ocar
alleles
haz
effectively
consequently
chromatography
reconstruction
09
trim
barrier
haem
separation
##itten
influenza
blind
pulse
thermal
##mc
gd
hor
shared
respondents
4°c
##iral
##ared
serve
volun
integration
records
##era
analyze
milk
eyes
challeng
ben
receive
capable
neither
ice
##fr
murine
glass
cdc
controlling
discovery
extension
microarr
hex
dry
producing
modulation
lr
##vs
orientation
hypothesized
possess
125
isolation
##oprec
protease
varying
##esia
##odynam
##atif
simultaneously
ads
##idal
austr
platelet
rise
arab
industr
persp
##uary
dox
##p3
prolonged
monoclonal
##plicate
lucifer
hg
trauma
elder
page
composed
##izations
excell
diluted
locations
emission
chinese
instructions
perm
span
##okine
classes
negatively
##itary
dorsal
##ipitation
rac
##49
favor
false
phosphorylated
distr
allowing
##ochemistry
shor
participation
##itals
adren
morbidity
vessels
diver
member
surpr
ru
parental
reliable
return
equilibr
gi
differentially
abc
constructs
##oxy
hydroly
degen
##nel
hla
traits
velocity
partners
##ote
zn
embryonic
inher
brow
##atase
assumption
##uments
younger
childhood
manip
##d1
##ana
coated
zero
urban
##enic
##otes
transformed
discussion
asc
compens
clones
hospitals
##ione
om
explored
biology
lymphocytes
undergoing
trp
##off
r2
##ropath
##ister
hypoxia
##lim
bis
antibiotic
reduces
jun
aldr
pic
##ble
ips
ather
maximal
rating
operation
easily
distinguish
##ided
scaffold
eg
##66
##abilities
characterization
modul
dram
written
##hal
##anine
##urg
publication
microbial
cg
functioning
dissoci
aldrich
enrichment
policy
practices
##n1
##va
instance
paired
expand
zh
intravenous
##59
conversion
shorter
substance
nas
genomes
##otides
depends
enrolled
##ral
neuros
1994
hazard
challenges
absorb
uncertain
##ada
##rophic
distributions
relax
reliability
chamber
thym
##88
retro
chip
benz
antioxidant
##ota
library
mann
oppos
verte
routine
nerv
vul
##ept
skeletal
alignment
retrie
why
##ocytosis
scal
consecutive
participate
board
elderly
session
promoting
commercial
pure
affecting
sectional
financ
luciferase
scheme
##acchar
centers
teach
##anding
chi
##ki
weighted
phylogenetic
understood
organisms
defect
stratif
vide
cytometry
##urally
obese
fewer
ana
tt
promotes
communities
fields
infusion
##ectious
notably
instrument
##v1
fu
##enin
organs
cum
##mi
circulating
implemented
detectable
rc
##vis
##onch
forming
##ady
peg
too
ground
##osity
##di
van
socio
labeling
obvious
insertion
##ovirus
scanning
suffer
tn
shock
yo
jo
visit
maps
technical
ultrasound
define
determining
ischemic
neuron
raw
##roun
tur
actual
serious
clim
##edd
gb
abundant
##ped
##oblast
improving
zone
race
cry
drinking
##mm
##rt
regardless
lap
compet
predictors
storage
epit
comorb
##rounding
pell
remod
recurrent
layers
hous
pediatric
reading
tau
yellow
round
infectious
##fficients
neck
coefficients
##neal
##gens
newly
blocking
dex
skills
##unct
necrosis
km
2h
representing
plots
risks
##atus
##ij
leaves
adequate
##usp
##iction
accordance
enhancement
##zen
oxide
segments
rig
##fluores
ect
standardized
bed
##angl
##anged
mos
evident
capt
attrib
patch
malaria
##osine
vaccination
calibr
harvested
surrounding
lac
differentiated
atm
##43
fracture
parts
##illing
ly
##berg
cns
retention
consistently
validity
analy
conce
excellent
datasets
##enty
progressive
demonstrating
max
##58
glycos
sense
p2
##ogly
schizoph
causing
##ogram
##opo
exception
fro
consists
sessions
##usal
kd
pil
pert
##roscopy
3c
tob
covari
surfaces
l1
separately
##usive
estimation
govern
land
antibiotics
disruption
##ontin
seiz
society
uniform
thi
##pcr
thin
conduct
bor
##cler
scr
capture
##key
traff
##63
immunoprec
recommendations
osc
nervous
bands
perc
continued
##thritis
largest
microgl
restriction
dial
parad
coupling
##cl2
seek
##chron
pn
##teine
solvent
ultim
intrinsic
retin
consisting
deaths
##acco
schizophren
examples
neurological
##ends
park
ot
quad
effici
immunity
nar
harm
##ancer
resc
clustering
adaptive
persons
replacement
surprising
lost
homeostasis
vectors
contributes
meaning
jan
glutamate
sant
##oscler
loaded
otherwise
dimer
bleeding
objectives
##ritic
hippocampal
sustained
sciences
twenty
##ka
##wide
outer
phases
blocks
makes
##ett
##atment
3h
##ifying
##idin
experiences
psychiatric
##x1
laborator
maturation
##alling
suppressed
##77
##zation
gut
hippocampus
template
listed
kinetics
assessing
microt
##elled
graft
eq
articles
upstream
safe
frame
##ancing
upregulated
conclude
aortic
qualitative
hip
epig
##acet
admission
pharmacological
ages
absent
markedly
tuberc
remark
##plc
hif
get
supernatant
##pc
##igu
discharge
assumed
insu
immunos
rural
predominantly
accep
corrected
electronic
##iring
##ulum
demonstrates
spin
##avy
microm
laboratories
dt
albumin
overlap
2018
vag
ischemia
portion
nico
medications
##here
##entia
country
catenin
seq
fif
##ef
##hc
actions
tobacco
electrode
dmso
flav
persistent
pi3k
lm
##iaz
neph
width
refr
answ
pathogens
decreasing
considerable
##anth
depressive
peroxid
collab
conformation
consequence
temperatures
rf
##ered
sple
occl
limb
funding
glycer
106
irradiation
sb
−0
create
combinations
abuse
figs
##ophila
##afts
theoretical
antigens
erk
##roscopic
##46
colleag
gir
##udes
config
bronch
complexity
beads
annual
ni
##lin
simulated
kinases
##icking
scales
bilateral
##ilities
limitation
caro
##patient
horiz
gst
##olec
##ulatory
initiated
##ulative
dimin
oscill
trained
##usc
clearance
pooled
1990
prin
##hl
5b
pregnant
ethics
adaptation
dementia
epile
participated
##cn
code
visible
excit
appearance
susceptible
colorectal
bladder
terminus
##illance
##phosph
supports
representation
recombination
beginning
agonist
##ocrine
##itus
##icillin
hcl
inducing
chains
inside
predictor
##iveness
##robial
1993
musc
clone
ethyl
strom
financial
elong
trunc
muscles
translocation
microarray
blast
##ellar
1β
knee
##itoneal
##oglobin
guide
colleagues
mapk
deposition
unp
careg
disturb
helix
poorly
delivered
enough
pneumonia
wavel
visits
overc
healing
investigations
pel
depos
tomography
emergency
substantially
naive
##erative
heavy
planning
aggregation
displac
normally
surviv
mda
regulator
surveillance
##term
standards
ket
plane
dogs
composite
tagged
precursor
##amycin
schizophrenia
veget
exclusion
phenomenon
concluded
nit
encoded
qpcr
##ocarcin
bay
confer
auc
connectivity
##51
jud
−1
dental
reagent
effector
inhibiting
hydrophobic
vein
##ave
medial
##treatment
lineage
youth
stronger
neurode
##omycin
##mitted
sy
##jection
rar
tip
inters
became
accompanied
obstr
fixation
rout
estrogen
##inson
antimic
manifest
principal
unlike
physician
uses
share
knockout
##78
connected
illum
fibr
habit
##iae
##urance
##uvant
append
acetate
bon
deficits
lamin
isoforms
dopamine
resource
##itect
thermo
bes
##hi
adjustment
phenyl
##ba
applic
observe
traj
opi
hepatitis
dros
empir
##des
gave
##plicit
##osterone
gray
neonatal
reproductive
##weight
cultiv
remove
perh
105
gaba
##mod
relev
##lycer
integrity
zinc
##hg
mother
##queous
hol
college
antimicrobial
##oming
inactivation
chick
mov
autoimmun
edta
c57
perhaps
##m1
adding
##x2
disability
acts
ldl
##lets
activating
suic
6a
endoscop
situation
##going
##thal
nd
trip
##oside
immunobl
film
##ologists
object
##enyl
##t3
timing
microtub
##tein
interviews
attit
propose
##poses
explanation
relevance
providers
atheroscler
1d
closed
arrest
##draw
asymm
limiting
aqueous
##l1
##c2
syst
##ala
promin
venti
antis
attenuated
influences
vacu
characterize
trends
lysates
priv
ones
scatter
plasmids
pathogenic
##ulosis
vessel
epigene
started
withdraw
signalling
unex
phospho
ways
a1
epithelium
unable
focal
brown
confocal
frontal
methodology
macrophage
cig
insight
notch
##hs
biofil
stay
##lands
eti
##aints
##o1
##41
intensive
volumes
ven
concerns
dendritic
mess
cortic
surge
##itant
puls
##ensively
leukemia
smokers
extremely
environments
##ohyd
operative
discovered
evolutionary
reward
look
steady
df
uter
user
infant
penetr
aberr
lin
namely
##ystems
accepted
biosynthesis
spectral
##ensis
foot
##osal
improvements
greatly
110
sched
centre
##ison
nps
arrows
enzymatic
##adily
sun
##itol
##edded
##ani
antagonist
compartment
insp
pron
airway
involve
reper
##tivity
vic
subtypes
window
precise
beam
bow
qi
##62
phosphatase
mf
preoperative
h3
##ift
##cher
##agr
metastases
bac
vertical
##aline
presents
opposite
cyclin
pros
lp
limits
tor
##yte
amyloid
aspir
bearing
phenotypic
presum
ki
pca
yielded
##oad
##iance
fear
frozen
##ested
eosin
war
transduction
para
nurses
##omical
educational
h3k
hypothes
tables
injuries
hdl
evaluating
ju
hdac
nitr
carrying
computational
spher
polymorphism
performing
flux
ram
embedded
crc
##m2
digital
s6
##enchymal
##opa
reactivity
contrac
maintaining
##ously
kore
ongoing
4c
sham
dimensions
lipids
gon
partner
prelim
bs
dap
angiogenesis
##75
tight
treating
##ferase
##psych
math
##embr
reh
##eptide
##iness
comparative
##ococcus
##lip
casc
o2
stock
##olin
accom
washing
movements
mediate
scler
aims
##g2
edge
hund
colony
becomes
drosophila
cumulative
hydroxy
donors
motifs
exogenous
careful
mand
biol
lam
cloned
##bc
cust
##ato
electrical
quite
etc
acting
cardiomy
enab
##lc
recovered
hundred
##ayer
option
ace
##pts
##oresis
cartil
valu
averaged
barriers
##elves
encour
h2o2
preference
rv
ber
depic
reinf
##ecal
centrifugation
stere
##ocytic
outl
city
vesicles
contributions
polymorphisms
bodies
##ko
extra
##odynamic
presenting
##ws
constitu
##teen
mcf
##ford
contraction
600
architect
hybridization
mutated
##can
iq
deform
law
dried
##ester
silencing
bud
cruz
upregulation
dye
1992
##intestinal
fd
c3
hoc
concern
##anial
santa
kept
s5
infarction
gland
satisfaction
kl
##sis
keep
##98
fati
secreted
tcr
perfusion
##opsis
cigar
virul
whe
indicators
calculate
gastrointestinal
##aving
cytotoxic
remodeling
aid
spleen
leth
approval
derivatives
bsa
quick
immunofluores
alt
fbs
##ensiti
blotting
web
excitation
fatig
sept
precl
##estic
resolved
##a2
##factory
narrow
auditory
adolescent
replaced
virt
##otropic
sho
##adian
c57bl
wavelength
##cape
faster
pix
indicator
translational
gy
options
abstr
description
##oline
ventral
catheter
utilization
endometr
##issions
pkc
immediate
##ories
emphas
hl
effort
##asome
##ipped
proton
monitor
##otrans
##oli
sent
spectrometry
##iton
summarized
addressed
dro
dcs
preventing
classical
bip
##opes
nursing
tuberculosis
coordin
division
##times
c2
sound
diast
requirements
centrifuged
preliminary
differed
africa
adapted
##omeric
mineral
##ophage
trop
radio
##for
serine
examining
cytotoxicity
mobility
rhe
##aryng
correlate
chest
phag
vulner
##ror
symm
modulate
thr
neighb
hplc
emerging
ef
insights
responsive
striat
quar
splicing
algorithms
hemorrh
preced
aids
concom
ent
finger
infr
##aking
perspective
purification
lysis
homogen
immob
colonies
databases
manual
neutrophils
cohorts
m1
package
hearing
resting
tab
##alc
##platin
spectroscopy
advantages
ccr
##b2
threat
dot
conformational
d1
##atid
eligible
##ham
##97
panels
lep
utility
##ought
g1
wil
##hydro
efficiently
concomitant
heterogeneous
innate
lens
systolic
epigenetic
brid
##rd
died
changing
##min
somatic
sequenced
1α
idea
##ivariate
lane
pore
january
precision
volunte
encoun
visualized
speech
mom
venous
worldwide
adipose
##aceu
whom
thems
cavity
themselves
methanol
secret
##enia
catalyz
##atics
clinicians
attachment
uc
professional
preferred
reti
scans
screened
##o3
amin
180
claim
superf
sep
perturb
interc
##embrane
dissolved
assessments
iod
a2
regeneration
chromosomes
facility
euk
##h1
##ohydr
##iking
β1
gram
##ury
apply
regimen
hek
##know
gangl
linkage
fs
immunore
immunoblot
interacting
ham
reviews
pts
valuable
diverg
fp
biotin
minute
rnas
##mt
bt
existence
pow
incorporation
##ophosph
d2
p1
electrophoresis
subcutaneous
##ni
lymphoma
##amental
discrimination
ethnic
##ux
##ring
cartilage
##oic
elevation
jn
cond
ecm
##embl
##olate
video
egfp
parasite
##itting
operating
exists
fatigue
analytical
##ulose
took
equilibrium
##ologous
genotyp
slides
larv
##axis
cysteine
alex
cadher
mscs
eukary
hela
dmem
accordingly
rice
enable
ultimately
predictions
##oman
concerning
congen
calculations
acknow
reinfor
replicates
ti
nitro
merc
##inical
aure
spss
ethical
synchron
decisions
##uis
rd
##plex
fungal
##areness
nutrition
propag
pin
select
interference
aggressive
saliv
correlates
consideration
nutrient
mhc
covered
joh
fasting
monocytes
copd
prevented
##urated
recall
mutagen
##ochrome
ppar
##iment
synerg
p38
adenocarcin
homologous
##alth
think
rule
##infl
quantify
##ounting
##amination
former
cann
breath
um
##leuk
hbv
contributing
distress
biomarker
roch
horizontal
instruments
readily
supplementation
sarc
ppm
paradig
lb
##bar
##ito
prominent
##uria
awareness
inferior
hos
sought
verified
##64
130
semi
filtered
challenging
attached
##ynaptic
sulfate
bin
die
aga
plasticity
##ml
##eds
facilities
injections
fourth
chr
glomer
predicting
##uctu
rhyth
evoked
sampled
larvae
mobile
seps
concurr
##att
nb
##aldehyde
difficulty
##ounding
fluctu
ic50
anth
##elec
unch
neuropath
##viral
incorporated
consult
1991
##95
##puts
##abs
mrnas
practical
brom
biotechn
biosci
photos
utr
born
##oidal
##fc
##×10
c1
hier
sucrose
besides
glycop
radiotherapy
trait
104
mw
residents
increasingly
permeability
fundamental
reflected
upd
histopath
crp
relapse
##amer
indices
ltd
goat
proph
##uses
resusp
comprised
vertebr
multic
weights
##ora
reflects
##urity
aureus
##mentation
##87
corresponds
requirement
##graph
kh
subtype
##ilized
hind
spine
government
mask
complementary
deplet
##ounced
incom
fitness
benign
##opoie
unlik
##onate
anesthesia
unlikely
ord
arabid
cadherin
bic
qt
comprom
lapa
assistance
##ucted
fine
##oor
arthritis
##iers
retained
requiring
##tch
glutath
##mann
rotation
hierarch
pear
determin
tib
proportional
##uits
##illus
expanded
arabidopsis
clean
dehydrogen
criterion
autoimmune
codon
contents
calculation
##ecs
##agement
##usively
deb
pump
apical
mono
zebr
ft
conflict
argin
stat3
integrin
synthase
alz
applying
filled
oligonucle
attack
dw
dich
sometimes
raised
##inflamm
ny
##actic
highlighted
##fold
rip
##ilateral
##icon
ranges
negl
accurately
prevalent
##edic
optimized
neurosci
infiltration
gro
astrocytes
140
ideal
hors
away
vox
neurodegen
##rect
##entive
meeting
implantation
subcl
derm
academic
##onym
agar
##pring
oa
##73
interpreted
adjuvant
metall
vital
suspension
cues
discl
carriers
mu
coch
inactiv
viable
eating
##clc
arom
##52
##alities
overlapping
pay
##heimer
strept
je
6b
conversely
mhz
simpl
doub
carbohydr
decades
anatomical
gw
english
##ophageal
##ulties
interleuk
slices
rehabil
hall
gn
comorbid
counted
selectivity
immunofluorescence
kinetic
gam
quin
##±0
actually
granul
cd3
prescrip
fractures
sepsis
##estim
fruit
##assium
fore
##oin
captured
promoters
margin
##lings
##100
atoms
bonds
scored
beh
interacts
discontin
tyr
tu
hold
homology
easy
##ara
supply
ide
##ache
cocaine
##zing
asd
harb
##fusion
anch
##itz
eeg
incomplet
transporter
repress
ont
potassium
currents
module
cool
depr
##uding
overcome
stretch
institutes
tam
rrna
p4
##ming
contacts
wat
mell
homogene
offspring
##ylate
converted
##eted
inactive
pronounced
sou
fri
lysine
5c
stimulate
continue
building
fever
expon
intell
##n2
##d2
nl
rock
activates
writing
slope
difficulties
regulators
discrep
128
immunohistochemistry
plotted
inserted
distances
sust
subjective
lh
cooper
walking
pep
pretreatment
##path
##onical
##g1
electrodes
alzheimer
transmembrane
atl
##isph
matching
coil
excessive
108
neurot
illustrated
climate
pharmaceu
hydrolysis
believe
spor
gels
shaped
mad
simply
compliance
chond
dip
combining
seeded
chloride
amph
##ques
##oon
front
protect
forces
thorac
plaque
sox
monol
##acin
mesenchymal
glutathione
f1
generating
smad
relaxation
isolate
highlight
stiff
subgroups
her2
005
aspect
toxin
##aved
assisted
##ials
h1
dock
##61
extensively
gol
degeneration
##cephal
107
spot
eps
reveals
10−
##ograms
dissociation
lifest
multid
##inter
leak
apc
##avi
sensors
worse
covariates
dic
lungs
modest
west
##psy
cytosk
interleukin
flank
##idase
girls
opportunity
empirical
rough
neighbor
aligned
los
equally
invers
automated
pathophys
station
##mer
tac
##eta
nav
structured
##prot
##ping
chromosomal
enhancing
embryo
wang
atrial
mapped
phospholip
detecting
driving
professionals
citr
warr
episodes
pas
p3
sap
brca
candidates
forest
couns
src
suppressor
alternatively
yields
glycerol
cvd
infiltr
scoring
feel
##aint
northern
##opoietic
scenario
proven
motility
circulation
resuspended
southern
glu
##onas
port
##ensin
exer
causal
##mv
drive
vision
##related
cultural
##rought
##apses
##aken
retic
arth
evid
##pass
recordings
##ighting
ammon
intes
##ura
gf
rnai
believed
cisplatin
serial
##ano
emerged
india
attempt
differentiate
nos
##uctive
surveys
dehydrogenase
##uly
specified
completion
nsclc
002
produces
rehabilitation
##acerb
nicotine
virulence
nasal
sensing
exacerb
abol
sea
decay
physi
immunosup
tumours
vp
va
microglia
pock
##zyme
gtp
supr
phyt
potentials
purposes
rearr
engineering
exclusively
favorable
pref
roche
sten
selectively
tubulin
lag
##afish
architecture
recipients
son
zebrafish
specimen
creatin
nonc
##pread
questionnaires
##fig
arteries
functionally
stom
mmhg
occas
reductions
needle
##plasia
atg
gall
wides
##enol
##chem
##cemia
109
widespread
##ascul
seconds
##120
##79
conservation
redox
129
reasonable
nutritional
situations
symptomatic
rg
103
creatinine
vaccines
inducible
ethnicity
formula
digestion
border
##adic
advances
cpg
opioid
##2b
ball
cytochrome
complication
##rocyte
bulk
innov
##ares
latency
excre
diastolic
pall
biomass
roots
optimization
decom
solub
stra
tubes
pilot
osm
insufficient
suspected
survivors
necessarily
cytosolic
progenitor
pent
ablation
sinus
qiagen
lifetime
austral
4d
homozygous
hydroxyl
concentrated
##5a
objects
calibration
copies
##mented
investigators
drawn
card
gyr
##eps
reversed
peroxidase
##pp
diffuse
triggered
farm
axial
##ools
distric
novo
cro
shifts
atpase
sph
cyst
101
accounted
greatest
fibrin
mind
canonical
##environ
sequential
diagnoses
lactate
biotechnology
##4a
hemisph
neutrophil
hispan
depleted
apr
##inge
desired
##accharide
artificial
ath
construction
anticip
tumorigen
bowel
polycl
december
##iar
fitting
overweight
coordination
galact
buffered
programme
##antic
metabolite
superv
##89
linking
genus
##ev
##veolar
dash
minimize
cryp
eif
mood
whit
pten
opening
##max
##break
explicit
##affin
agarose
shrna
appendix
participating
##angi
steroid
aml
valve
absorbance
##ilization
##pin
shear
displacement
enhances
charged
genetically
activator
nucleotides
season
##vascular
trees
sugar
subsets
##olecular
inverse
trypsin
analges
hot
truncated
##eleton
##ida
name
proved
dead
stratified
boundary
##angement
antiv
microenviron
copper
##atible
##tisol
retina
##aker
##cale
##cd
polys
immunost
femoral
##elt
canada
funded
somewh
placement
distant
instability
senes
ger
bab
peer
braz
polyclonal
reagents
mucosal
mitotic
facial
experimentally
repeats
elimination
outbreak
meet
adenocarcinoma
##oplast
adopted
##atum
engagement
##mal
magnification
ka
lobe
happ
##enter
cutoff
n2
pigs
tracking
##tral
heterozygous
salmon
epidemiological
consistency
enl
withdrawal
uncertainty
sul
diminished
leptin
served
##mental
sud
dramatically
ester
trafficking
##ulus
modes
contamination
160
night
strict
fet
generalized
empt
els
apart
g2
helpful
ends
bile
takes
mosqu
sand
capillary
mag
icu
##pe
t3
weekly
route
acceptable
##cell
camera
incons
##hea
cris
private
precipit
biofilm
xyl
##erge
##ocardi
iter
sib
spp
hh
ah
##load
inver
delta
fell
investigating
hemoglobin
impacts
atmosph
percentages
goals
calif
800
running
foods
lifestyle
stated
guided
##vation
dg
##urys
agric
osteop
organism
promoted
rarely
##oscopy
socioec
configuration
property
extend
myeloid
expressions
hospitalization
mucosa
prophyl
competition
adhd
nom
carrier
asian
parasites
observational
studying
gradually
##inating
nanos
seeking
lipoprotein
mellitus
mini
provin
hydr
triton
firing
volunteers
wells
cac
denat
##try
incident
##nea
hypothalam
stromal
bh
row
contamin
protected
agricult
arms
carotid
tet
streptom
mosquito
defense
attitudes
cxcr
admitted
adsorption
axons
rpm
cdk
293
transpl
feasible
mast
arginine
principle
##idium
intensities
swe
symb
contro
punct
entre
epilepsy
##after
keratin
mediators
##ecep
##r2
gapdh
aggregates
demand
##ptomatic
rheum
serot
##otomy
##oxin
rms
codes
##anger
##io2
##mg
considerably
thresholds
segreg
13c
##uck
guidance
proportions
sas
films
big
7a
##ya
adjusting
##ycline
pearson
isot
disapp
diagr
flat
sera
dimethyl
turnover
biopsies
xenogr
striking
defective
somewhat
dialysis
nano
##kk
critically
spind
views
react
postn
sterile
pyl
controvers
ai
##ichia
##fort
aberrant
##elets
proce
deviations
vo
cortisol
wrote
ank
bmp
diarr
emt
noc
##ians
stream
preparations
swed
stain
biosciences
gag
##ests
cyclic
gsk
proc
atherosclerosis
microbiota
exhibits
dispar
adp
conceptual
##entin
brains
passive
##vic
reaching
ampk
insurance
wet
louis
premature
envelop
corp
proliferative
rnase
epidermal
describes
##uate
blockade
extreme
agonists
unexp
sar
pharmacokine
nac
sacr
psychos
elicited
intram
##amous
arb
ane
cascade
descriptive
newbor
individually
held
attempts
socioeconomic
stimulating
seeds
grants
inoculated
##ifier
determinants
offers
carry
incomplete
echocardi
quant
cav
master
complicated
communic
triglycer
bold
immunohistochemical
underl
intestine
hn
##600
##ospor
mammary
unexpected
##flow
downregulation
univariate
ars
##utation
moving
##inflammatory
##emat
congenital
mammals
latent
undert
cd11
leuc
##aly
facs
##ita
advance
bmd
brazil
unchanged
##aceae
##rics
##ologist
inconsist
perman
hepatocytes
vl
binary
regimens
bdnf
ses
histor
efflu
inhal
ckd
shell
paradigm
acidic
##ap1
explo
spent
autis
downregulated
encodes
##orous
californ
ile
pad
thirty
carboxyl
assayed
fn
teeth
inad
##71
supernatants
trace
overexpress
arc
obst
lib
mas
veter
penicillin
psychiat
glutamine
hematopoietic
##transferase
heparin
##rontal
flexible
analyzing
visualization
recognize
presumably
##oplastic
elucidate
elongation
pren
gsh
powerful
prescribed
cation
##uge
asymptomatic
##aphyl
axon
##agulation
1989
signature
throughput
modulated
##opol
fitted
quantity
accession
corneal
##cap
postnatal
proteasome
ptsd
##293
files
ecological
dosage
posts
gestational
interferon
qrt
che
##akes
connections
gives
tooth
##eres
lymphocyte
rub
verbal
registered
##bp1
australia
##du
##ocomp
mutagenesis
stiffness
##ophilic
##cp
chemistry
dav
attrs
##xr
##85
##brevi
coa
partly
##ilic
split
##axel
cognition
subm
proof
plated
rated
outpatient
##ulates
##itors
abbrevi
revised
eventually
exposures
adapt
applicable
ocular
##o4
5d
102
##aments
bund
##izer
practition
substances
fitc
chim
##ematic
focusing
aqu
seizures
anomal
grey
jnk
suicide
built
photo
feasibility
triplicate
links
usage
build
genetics
triple
equations
sg
alteration
prism
transcribed
hrs
tendency
hydrog
##lam
eleg
repression
##inescence
##ochrom
##uity
##oblasts
trna
lncr
surprisingly
collabor
vibr
cirrh
epitope
ulcer
platelets
##oderm
aneurys
##water
##ygd
##unately
##inder
##ariable
estr
##ewise
chloro
jak
optic
pka
personality
machine
saturation
mex
fair
ie
tx
111
##azine
vaginal
##operatively
gib
##omb
parkinson
adenosine
formulation
gov
elsew
antiviral
flies
##olve
elsewhere
macro
schools
##tructure
##opausal
irre
mism
immunization
##fe
##izumab
warm
##erve
edema
##andem
tension
##mcs
##orth
arise
##hion
assembled
amygd
##onom
pocket
confirming
profiling
lev
ratings
elastic
##unt
crystals
rescue
essentially
chemicals
breeding
dissem
tap
treg
validate
escher
bf
recons
##ola
modern
princi
designated
wm
coded
##reci
##72
pod
collectively
fmri
sustain
##aden
your
conditioned
soc
##ugin
reperfusion
california
lengths
##aryngeal
ae
schematic
##yll
numerical
ventilation
deposited
cue
powder
tens
psa
improves
vascul
custom
pdgf
cyan
clamp
escherichia
wood
biomed
picture
##ords
violence
registration
enables
scar
electric
hi
remission
atyp
mimic
hormones
march
lenti
constraints
biosystems
varies
inputs
##pecific
utilizing
nitric
categorized
moment
microenvironment
##ettes
mesh
mediating
dendr
kapp
traumatic
reflecting
##atidyl
##hyth
cleaved
lic
malignancy
##nd
##cepts
fashion
directions
immunoprecipitation
bayes
neuropsych
micror
vill
oocytes
hepes
atrophy
##tra
circular
digested
quadr
mismatch
termed
worth
caud
island
principles
tailed
covers
libraries
##dp
bipolar
routin
golgi
##eded
gad
chen
stabilization
##iosis
densities
##auc
caregivers
mening
obl
coher
crude
apoe
opportunities
unless
##iel
boys
unrelated
##obacteria
118
intention
prevents
dest
isop
##exin
##orecep
tele
fused
##nia
interpret
##76
depicted
antit
preclinical
straight
p21
named
anc
notion
imag
offered
east
inos
universal
ccl
##ocortic
coating
unaff
roc
nich
folding
correctly
##empor
indication
##ocon
static
foci
##omotor
assume
1988
stranded
acetylation
##ervation
necro
industry
june
bypass
chance
contrary
filtration
legal
##aga
##osed
comprising
##96
slower
travel
##roteins
subtr
clock
##uous
additive
b1
tandem
competitive
sediment
squamous
##ees
##uron
psychology
##isc
zhang
deal
##elles
microscopic
synapses
##oted
##bank
wheat
circles
##rna
illumina
aliqu
dapi
giving
etiology
cxcl
subp
kcl
format
herein
dashed
america
concurrent
disappear
connection
scattering
fos
attend
potency
originally
compression
emergence
##cil
##anti
unaffected
##points
japanese
##ylamide
stenosis
closure
nct
##uctase
##ret
mediates
normalization
naturally
erk1
precursors
##link
returned
exons
coinc
##ago
phe
river
prone
jus
entrez
likewise
acr
spike
qol
χ2
##f4
repeti
tan
preterm
compartments
waste
003
lineages
woman
resin
##entis
exclude
intron
whitney
continuously
equip
endoscopic
come
##ault
confounding
annotation
kim
editing
destr
diets
##azol
lysed
sna
alexa
gross
dysreg
papers
##ocor
##xy
undertaken
columns
decade
##poration
lethal
##eled
dense
administr
tl
aort
scenarios
trich
backb
lands
##omonas
bath
korea
126
discrete
occupational
began
refract
oxidase
hemorrhage
pitu
verify
opin
intraper
empty
mounted
stack
operated
physiology
cass
appreci
coex
preserved
phage
alanine
urea
deficit
circadian
accumulated
##ussian
cin
assuming
##avail
##rane
perceptions
antagonists
ances
arrays
hypotheses
allergic
fungi
quickly
##pd
birds
prescription
replicate
alveolar
ala
##ife
##ivation
##ographs
##ploid
pax
derivative
als
apparently
unfort
##acing
transporters
mk
policies
fibroblast
hispanic
occlusion
microtubule
##phone
machin
##1b
publications
##ocys
deletions
accessible
##apor
pup
##tures
fertil
diffr
registry
##pathetic
##ocated
rect
severely
hek293
icd
##inted
##atinib
excluding
eggs
submitted
flexibility
##terone
reader
microc
expert
##utin
radial
cfu
231
lanes
geographic
irradiated
fb
##inform
cmv
##vate
rho
proximity
tended
belonging
##acial
carbohydrate
##onuclear
testosterone
overexpressed
cd45
cerevis
bank
manipulation
cm2
##arum
##gers
clinics
##iro
scaffolds
coval
##oxic
abl
gem
bol
##adiol
##wards
##head
dyst
orange
##phosphor
silica
usual
mich
##ographical
job
ecl
pituitary
droplet
axonal
percenti
rm
trust
conditioning
cerevisiae
occasion
fus
slice
leu
annotated
serves
bax
predis
amygdala
##amily
##74
mechanistic
deter
##ellite
examinations
##afted
thalam
glycine
##ho
anten
precipitation
pari
adrenal
biomedical
##enta
dosing
teaching
##isk
##ias
##iger
burn
motivation
acs
preferentially
hierarchical
recipient
pylori
streptomycin
genotyping
highlights
portal
thoracic
##ama
malignancies
transitions
kv
coordinates
##ey
duc
conditional
anemia
restored
hsv
substitutions
glioma
##grade
mec
chaper
tat
hes
cigarette
categorical
carcinomas
chose
promotion
hypers
ncbi
##emble
mds
meaningful
webs
marginal
equipped
intense
##avirus
##omere
pdb
peritoneal
france
splice
115
shed
responded
##thood
neurotrans
unfortunately
implies
spindle
kir
psychosocial
prep
1e
king
depolar
amel
exec
entered
unpub
histology
##omorph
mgcl2
que
adulthood
microorgan
indian
rupt
ff
##gag
##utable
superoxide
detector
bif
msc
##uscular
reversible
esophageal
hct
alkaline
angiot
ll
endocrine
displays
##fficiently
prefrontal
locally
##erry
mixtures
damaged
##ellum
##ameth
proges
##ille
aromatic
owing
sharing
evolved
grid
terti
internet
nurse
unst
##ectable
encaps
stent
t4
gyrus
circumfer
##pad
ige
batch
indicative
acous
lumbar
##cious
labelled
6c
overexpressing
glial
backbone
exert
marine
##enal
sac
##ofib
dut
##ivity
pit
peric
filament
lee
aerugin
4e
carefully
nonline
modules
persistence
senescence
##hydr
subpop
reconstit
grouped
confound
contral
immunoglob
taxa
angiotensin
transcriptome
revision
androgen
indirectly
dissection
rejection
millip
neighborhood
oriented
paraffin
eukaryotic
waves
resident
##idae
##omerase
aeruginosa
##iii
tertiary
molar
atypical
talk
aav
deprivation
statin
polarization
duct
centered
planned
accelerated
##iable
mixing
noneth
quantum
consumed
obstruction
nonetheless
triang
##etized
machinery
responsiveness
sacrific
##ocyan
similarities
unpublished
familiar
##aid
elegans
autism
myosin
##ogenes
hosts
##2c
##κb
##otal
geometry
solely
modulating
c4
##tidine
##uation
pull
dens
remarkably
market
gestation
switching
retrieval
##dd
##549
responding
uterine
immunoprecipit
adduc
##illa
dramatic
conven
rins
##f3
##400
phil
york
spermat
cess
counting
127
123
deterior
redund
render
segmentation
##a1c
contralateral
prenatal
lu
docking
##itudes
nlr
pdf
igm
office
bcr
##vas
colour
intersti
accounting
nonlinear
##oyl
116
refractory
##pting
5p
##eces
##anal
concepts
abstract
immunostaining
retrieved
weigh
nrf2
echo
til
pancreas
##xts
1987
rheumat
excision
##cemic
1980
constitutive
bright
lith
##atib
trap
imaged
haplotype
spots
phosphatidyl
manifestations
pelvic
heme
124
capability
abilities
stir
thorough
##xin
attenuation
preventive
pellet
dsm
mun
july
febr
e3
lon
##onymous
pairwise
##parts
##aca
attractive
cessation
nmda
institutions
implanted
abolished
eluted
##ocr
##opathic
vast
##pi
anion
##aplan
th1
contig
provider
enroll
​fig
enhancer
disulf
pw
seasonal
pak
works
##oblastoma
circuit
tk
sag
expend
h2o
cm−1
##arse
bn
##ethylation
passage
unus
modeled
##imers
clarify
##apol
hypertrophy
seizure
##odal
tas
##roni
transmitted
tone
specialized
119
bonfer
##umor
vc
cab
##apt
afford
extin
implants
gait
##ectories
referral
modalities
inh
naf
atcc
titr
polymers
linker
describing
hba1c
trajectories
millipore
affili
##avir
permanent
lf
clustered
agree
initiate
##abine
accounts
b2
worm
##gu
kaplan
achieving
converg
##gtt
cycling
manually
f2
proinflammatory
mch
province
regarded
##84
genbank
domestic
april
##quin
systematically
##virus
##electric
##itability
prosth
silver
nucleic
coping
attributable
##ophore
kras
##6a
##eli
detr
nmol
inoculation
hop
fragmentation
engineered
ectopic
excretion
routinely
suspended
##inos
##bach
profound
##oto
rapamycin
##oxif
ligation
viewed
tnfα
fire
pharmaceutical
encode
establishment
loops
##nis
##menting
ut
glauc
anneal
##oney
ine
tolerated
env
##rp
laparoscopic
keyw
overview
e1
creating
obtaining
heating
preferences
neurodegenerative
multim
sheet
expendit
vin
pfs
eliminate
faces
##elin
bases
disrupted
conflu
##otoxin
tbi
##ensitivity
parietal
contexts
antide
##day
112
provision
##iol
ee
##rous
canal
serotonin
##ruvate
managed
##ubicin
β2
orb
drain
postm
apparatus
diagram
##3b
ch2
dyn
equipment
tlr4
trach
alle
##gct
constants
##okines
mdr
ald
sided
iu
commercially
enabled
##pens
bonferroni
industrial
actively
mtdna
titers
ibd
glands
lowering
nic
attempted
radius
122
answer
450
##oxygen
##cl3
ribosomal
illustrate
council
transgene
##orem
##osan
##pler
dv
osteopor
soy
foxp3
aware
branches
16s
abcam
fate
bb
intermedi
intended
##ionine
##genic
v1
chicken
##enes
microgr
beliefs
170
lumen
moderately
popular
##94
divergence
##kb
ecos
arres
exponential
##l2
accompl
orf
topic
ebv
excitatory
refers
aster
slowly
atomic
##ompass
##ensitive
projection
junctions
immature
efflux
antidepress
hrp
imped
aerobic
##uled
##ega
##tium
unm
##factor
behind
sick
striatum
cirrhosis
assembl
envelope
colocal
##angements
##romycin
defining
agil
##omial
##afting
forty
paral
felt
plaus
encompass
organized
cutaneous
hypoxic
h4
helic
ri
##cat
staphyl
claims
olfactory
matric
comorbidities
monomer
uncom
osteocl
compatible
pcs
injured
remarkable
##oir
surgeons
114
disad
##ectory
##atosis
##olid
cannab
##oplasmic
stig
spik
blots
district
##iffer
scav
subcellular
squares
rules
nutrients
##aminergic
hit
clade
##asic
trajectory
lesser
d3
disadvant
kill
synergistic
##onomy
##well
renew
7b
multivariable
shifted
chd
heterod
aq
##agul
hearts
partition
arrhyth
glucocortic
acyl
##ocellular
oxidized
removing
##ken
vulnerable
agilent
bioinform
sheep
braf
abbreviations
jack
gaps
electrophys
##ationally
ku
##iding
thrombosis
colonization
##yster
assumptions
##atile
reserv
helped
fasc
promega
photon
suffering
depressed
checked
1986
##83
facult
mediator
cauc
rpmi
004
facilitates
conservative
bill
ea
inges
cock
abor
anaer
ortholog
nether
##onn
##dc
reductase
anthrop
##cine
131
declined
inadequate
gbm
##imb
fda
fibrill
rely
##yph
tbs
stomach
evidenced
pixel
##chemical
endothelium
sorting
bad
##while
idi
neurom
oph
##otherapeu
sufficiently
eliminated
##inase
##xa
searched
2e
fv
chor
##phrine
terr
nj
insect
mount
glycoprotein
##81
##plinary
epitopes
quench
fluctuations
underestim
##agm
ihc
rain
dan
pge
##93
caucas
swelling
graphpad
scope
meier
##iw
meg
familial
statistic
oncogenic
crow
##itig
netherlands
nn
perfect
mtt
anis
##aired
##ielding
perox
differs
syr
cerebellar
urg
s7
broader
bonding
poli
##regular
apo
fabric
closer
3p
angles
boundaries
tumorigenesis
edges
asymmetric
bayesian
##keys
135
ionic
iqr
constitute
ded
counterparts
##rod
sclerosis
cros
polymerization
visc
voxel
homogeneous
rhod
145
pulses
herb
##static
corticoster
##ena
ecg
##odil
irregular
hbs
cloning
vesicle
##irable
dtt
vig
##ocular
judg
transfusion
##ober
eosinophil
ago
projections
estradiol
helical
anticancer
##atibility
americans
secretory
##ius
pseudo
##neys
immunoreactivity
th2
syndrom
##luor
##gd
##olving
progesterone
rhythm
diffraction
habitat
sevent
prp
bw
##yces
##eptides
##eptive
discussions
bv
jur
488
agreed
extinction
##cein
##gic
september
taq
##ranial
113
##iasis
xi
##oprot
morphine
waters
##ete
facilitated
exploration
trail
liu
##ll
progenitors
eastern
quanti
##rowth
microb
##ini
ment
##ported
keywords
metals
tal
grain
reflex
##tia
esi
psychiatry
##table
##tail
bat
engage
behavioural
https
purity
interstitial
cub
please
smoke
inactivated
becoming
inherent
encephal
ministry
##ime
perp
##iently
explor
clonal
thereafter
citrate
##chlor
retrospectively
hyperg
##choline
##rophot
oncology
distor
##idel
conceived
circumst
estimating
immunological
cytoskeleton
households
percept
indications
μmol
##86
matrices
##hn
blinded
modality
doctor
influencing
asia
undet
ks
executive
##brain
meal
reciproc
episode
automatic
yes
endometrial
rectal
##02
condens
ambient
a549
ia
ces
reservoir
##inting
hemisphere
antisense
##igation
immunoblotting
##titis
deline
ez
coordinated
seal
forced
hyg
glomerular
cystic
immers
perin
crosslink
schedule
doi
projects
##ards
##nm
juven
##tified
poorer
entirely
spectrophot
collaboration
lasting
gaussian
chemokine
##infected
modify
angiography
##ulos
117
microorganisms
##astatin
salmonella
##nes
epidemiology
gps
synthes
##actin
din
##awa
cytosol
gonad
##haus
##ip1
antico
plaques
respiration
lysate
probabilities
lived
cd44
avoidance
mouth
experts
acoustic
pressures
plur
hypertensive
sharp
tgfβ
saturated
invent
transduced
boots
infrared
checkpoint
##82
fly
leaders
##asone
operations
##formin
balb
october
adequ
neo
dehydr
transplanted
deox
propagation
string
bus
##osyl
filters
minority
racial
cattle
gained
acknowledge
sah
sympathetic
transverse
##ience
smith
competing
constitutively
falc
fulf
##inance
##ococcal
chel
b6
lymphoid
inability
bim
abd
tubular
controversial
intim
ubiquitination
hun
##isci
evaluations
detach
begin
xl
crop
##me3
##ergies
cyl
polyph
kidneys
virtual
mcc
incision
associate
antitumor
luminal
histopathological
##ocin
brca1
tendon
escape
deleted
losses
challenged
employment
mating
##osphate
##ez
metrics
trypt
diph
##lab
##acrylamide
priming
##olab
stably
trem
substituted
conjunction
##vin
##ji
adipocytes
stimulates
moiety
shan
##ibilities
degraded
gse
methodological
establishing
enrollment
biased
responders
positioned
practitioners
calor
##entricular
graphene
##i1
##enger
##tinib
155
lists
132
##feed
aur
interfere
default
crypt
disulfide
##odef
permit
mitig
dispersion
##unk
##ulder
immunoglobulin
dots
mathematic
translated
cone
dihydro
kar
121
adolescence
lox
triggers
parametric
doctors
piv
700
accommod
zeiss
##rogate
filaments
plex
endpoint
spring
aorta
##pes
designs
kcal
affective
leukocyte
coordinate
salivary
pyruvate
strongest
fertility
##bits
sector
bootstr
##no
differently
cd34
plans
paraform
##antom
killing
rodent
##oxylin
methylated
windows
##92
metformin
##gat
ventricle
pam
strengths
##arcoma
##orubicin
notable
##ayers
arising
played
pathologic
illustrates
gate
exten
elucidated
rabbits
england
hypergly
diarrhea
ligase
zo
august
nadph
monkeys
neuroprot
paraformaldehyde
fh
scc
endocytosis
accumulate
diego
1985
expectations
intrigu
agency
##opr
hfd
intriguing
flap
bridge
##accharides
##map
fill
rl
##otoxicity
##allow
organizations
semantic
##osing
##enn
350
##field
demands
wk
tof
edu
mcp
##200
ammonium
smart
collect
##iliary
prove
erg
formulations
tween
definitions
sma
erbb
roi
##qol
##otom
t2dm
introduce
137
medull
stresses
amelior
##oxon
inferred
##gia
##actant
th17
immunodef
snr
liposomes
##eper
rpe
##ubation
##otub
unstable
conductance
##ffe
##ira
wi
190
standing
victim
broadly
pathophysiology
draft
##mitt
county
encountered
fatal
fdr
somat
conscious
gent
breathing
bit
##vian
reproducibility
phon
##uminescence
##x3
splen
employing
##idazole
schw
penetration
parp
##tiles
sumo
restoration
ordered
italy
##itic
nerves
##ele
reconstructed
stabilized
##ontrol
##blast
propensity
a3
##obacterium
anaesth
adam
telomere
lot
predicts
winter
said
##s1
propr
stopped
hypogly
wire
rodents
monthly
inpatient
grand
##bil
meat
r1
gv
polyc
##uent
balanced
ign
photosynth
learn
letters
##eries
l2
fifth
aspart
allevi
relig
train
##aced
hmg
unilateral
mathematical
inconsistent
carls
##rene
monocyte
irresp
brdu
addiction
##itrile
##entists
diagnostics
internalization
definitive
apt
##hol
240
##version
sorted
##atr
cerebellum
distinguished
spear
glycosylation
runs
larval
tick
##apsed
colitis
p450
repetitive
randomised
johns
##ilst
kappa
flavon
elicit
vm
lysosomal
cow
zones
nes
−80
destruction
##enopausal
shoulder
##opia
glaucoma
epidemic
viscer
icc
vr
yl
##assay
pyram
iga
lifes
##tilled
nin
##91
##bridge
beck
faculty
intraoperative
m3
opposed
award
whilst
cil
nodules
tightly
neutralizing
vor
neoplasm
fdg
ophthal
epiderm
leaving
anesthetized
##ulsion
catalyzed
extending
preceding
favour
restr
interested
transiently
##itinib
133
##estr
haplotypes
slc
interru
pretreated
polyacrylamide
tukey
neuroim
discrepancy
##orp
positioning
phantom
addressing
choices
##bad
percentile
##iff
hox
latin
ok
sole
##ua
ctc
structurally
wider
hemodynamic
capsule
weakness
superficial
sized
##itaxel
intracranial
enabling
themes
falls
staging
##pine
##urons
biologically
headache
ole
##olym
##wt
##li
mononuclear
manage
german
vt
exhibiting
immobilized
##gfp
contribut
volunt
hypot
bam
newborn
underg
responsibility
pollen
cave
choose
demograph
ferr
classic
comments
brach
dopaminergic
grafts
##ronectin
##encephal
##ophen
##fficiency
imper
lg
##rox
plausible
##osidase
##ipot
##appro
suppl
bring
references
permeabil
##ania
oscillations
circle
obstructive
##isciplinary
unusual
germline
pneumoniae
counseling
scanner
bub
spectrometer
willing
antif
##roid
atmosphere
r01
##vie
frames
going
protr
assignment
##nam
hsp90
doppler
yfp
leukocytes
tric
topical
neighboring
immigr
wilc
anast
pollution
##isely
placental
advice
##odon
##erson
weaker
amongst
##vem
cast
aph
covering
##ticed
disag
##oses
reticulum
relatives
representations
friends
swim
erα
##130
emphasis
irrespective
imbal
annexin
##icans
agricultural
seemed
calls
circumstances
fecal
ling
tang
pacl
undergone
looking
harv
##inea
vacuum
##iled
keeping
##amethasone
cardiomyocytes
##odend
drought
endemic
##oding
outlined
##elve
lives
functionality
peroxide
letter
##kyo
insec
acuity
##arded
speculate
##ctive
##df
##otherapeutic
##bean
##ading
integral
ova
muscular
warranted
engaged
##oxacin
##con
conducting
gated
##opus
cure
##elle
osteoporosis
##iratory
allocation
cellulose
inverted
sbp
oligonucleotide
tin
210
##agnetic
curc
scaling
unpaired
##flur
iran
bid
α1
fifty
gg
consuming
surgeon
handling
chic
##oides
reinforce
perceptual
cit
twelve
traffic
ws
chemokines
thous
tokyo
deformation
##plicates
mcl
meanwhile
doxorubicin
##itance
##ifferenti
##ibular
recycl
conduction
rigid
##ropyl
gwas
intermediates
signatures
thrombin
euth
rsv
220
##aemia
reversal
passed
congr
aspirin
cours
confirmation
generates
foreign
colonic
3e
influx
paclitaxel
aggregate
##ometh
##onitrile
cats
##bec
initiating
came
compromised
grav
graphs
##aran
arbitr
methionine
##urt
##inement
learned
instances
physically
acknowled
rif
##p4
reproduction
selen
company
eh
walls
nonin
polarity
filtering
histologic
psori
request
scf
hormonal
prospectively
facilitating
coagulation
inversely
mci
microtubules
interne
sudden
proteases
relate
foster
duplex
affer
electrostatic
ome
impairments
continues
sirt1
hepatocellular
comes
tea
rupture
deleter
termination
##growth
analogous
calculating
exosomes
radicals
pluripot
quantitatively
tetra
say
electroly
dividing
##e1
selecting
invest
imply
##urable
##unch
arteri
ppi
neurotransmit
determinant
oce
ging
##odic
desc
ration
angiogenic
formalin
trade
##mo
leakage
embol
summer
geographical
generations
##ali
bot
##iary
dissected
##ona
lamp
burst
pars
solubility
whereby
duplicate
crispr
trab
experiencing
disrupt
acceptance
photorecep
automatically
ganglion
microg
##je
catech
intermitt
##abolic
ug
historical
deleterious
purs
conformations
##ghai
khz
aro
##onine
deng
pict
gather
gata
yielding
lc3
##ander
mock
circumference
immunized
qtl
gpcr
approximate
spearman
oligonucleotides
##idic
dent
coast
##vasive
##agic
mek
therapeutics
incorporating
anaerobic
lup
phosphoryl
nmd
##oke
carcinogenesis
roughly
utilize
cage
stationary
##oxifen
precisely
positivity
##ialysis
gating
driver
bag
altering
symmetry
##ipping
palli
seedlings
##ximab
shanghai
curv
##imus
lew
solv
tradition
chart
probable
sulfur
pom
ecs
##aki
amplitudes
bioavail
heavi
##yel
demographics
pellets
##ado
clo
remote
adsorb
invari
##opos
genomics
autoan
quantities
cement
c18
pparγ
inequ
receiver
nanom
##ctt
mitosis
helps
negligible
##acterial
wear
phenomena
gal4
##116
hepg2
unw
dod
amplic
pixels
leucine
##istically
reprogr
decided
nitrate
bench
duplication
##uv
autologous
attending
ch3
batter
supers
aki
##eit
grass
wilcoxon
acceptor
corro
notice
ventil
prescrib
attributes
phone
joints
##iologic
tear
emotions
kinds
##oplasty
disturbances
priority
exem
nick
phenol
freed
export
morning
yang
das
mefs
comorbidity
##ald
patches
cochle
colored
fermentation
notes
##aching
##bert
prepare
pregnancies
##flurane
rej
s100
flanking
##ensory
dexamethasone
ken
hematoxylin
opt
odor
modelling
investigator
syndromes
caffe
geometric
modifying
##ticular
maize
##etics
##db
##itabine
wol
preservation
optimum
##omat
v2
wu
humidity
##idemia
behaviours
distilled
segregation
visceral
##sc
multiplex
landscape
proteolytic
ldh
optimize
catalyst
##aka
eph
telephone
cocktail
nonspecific
housed
soon
##jun
134
prophylaxis
courses
chimeric
##orf
##oar
tro
sweden
disturbance
exploratory
bbb
##iwan
##room
hope
mts
ubiquit
##ague
gradients
hsc
spir
intellect
##inergic
boxes
smear
immunotherapy
missed
rings
traces
corrobor
spontaneously
##d3
##oradi
lock
##odium
##ogenicity
deploy
taiwan
##ece
tach
pharmacokinetic
carlsbad
intellig
##onv
starvation
tong
nhs
sensitization
chicago
moved
ultra
genera
##appropr
chemot
lean
##ional
##a3
tv
novem
##partum
raf
firstly
denotes
bead
inventory
##itzer
helices
drainage
006
nox
ahr
ribosome
granules
albeit
declar
mot
huv
uncover
irrevers
jackson
fellows
##anyl
blank
inappropr
spatially
pools
fret
productivity
personnel
1984
##za
echocardiography
mabs
##onectin
cxcr4
tregs
##cm
cambridge
tio2
c6
academ
voc
sad
percutaneous
harboring
appl
##ethanol
138
##onyl
november
nik
hams
##esium
mrsa
##μm
caution
hallmark
informative
##itt
subtle
anatomy
insert
probed
properly
neoplastic
fibronectin
##agc
relies
144
##ozo
wise
##agt
suggestive
corn
##umb
confirms
radiographic
18f
dnase
tropical
##imental
medicines
oly
entit
lute
sides
incid
dominated
##ented
inset
differing
##ima
fist
deacet
neuroscience
aspartate
transpar
hypothesize
stratification
contaminated
entrop
albicans
players
hsp70
energies
mpa
##ittal
lifespan
sacrificed
rcts
aes
anastom
incorporate
chimer
plc
gfap
##otoxic
restore
esophag
supple
##openia
##t2
pigment
iop
monolayer
dysregulation
anticipated
immunosuppressive
inherited
starch
##so4
want
corporation
kan
heterozyg
stake
filling
wing
ultrason
periodic
subd
##si
analyzer
1r
weakly
periodontal
debr
transloc
##mscs
annealing
p65
clinician
transpos
comprises
##bh
guinea
competence
##ck
french
decomposition
considerations
massive
expenditure
antih
##yan
hv
##obs
orally
nir
sial
fruits
guideline
versions
exploring
sports
proline
##letes
curcumin
ca1
##03
gibco
##opro
dk
porcine
subf
stoch
disl
roll
names
chit
##ders
spherical
lign
##vive
statement
circuits
doing
analogue
##c3
##gcc
masses
incorrect
##olateral
##ichi
suppresses
sacc
caroten
136
slide
cassette
csa
flask
accessibility
myelin
##asy
cip
saliva
nemat
reflection
arrangement
platin
##uli
##cales
intraperitoneal
n1
biogenesis
road
juvenile
tamoxifen
lacks
download
ipsilateral
olymp
price
interests
lattice
minimally
compan
antibacterial
polypeptide
##eties
ankle
##iod
vulnerability
autosomal
falcip
supportive
union
yr
uninfected
ctr
oligomer
hpa
titer
setup
scd
steroids
vasculature
##133
##ulsive
##iest
ambigu
allelic
sto
##ardia
##olone
pbmcs
6d
pma
detrimental
rheumatoid
rational
##com
relating
##gus
##benz
intellectual
consultation
ssc
raman
##osarcoma
pci
breaks
effectors
##pot
sirnas
acetic
cooling
##glutin
touch
focuses
conjugate
conductivity
##urin
##sd
australian
impos
haemat
mari
##ois
adherent
orders
##afen
ganglia
han
sporadic
radiological
postsynaptic
randomization
imple
pubmed
micron
hyperplasia
lid
surround
falciparum
conve
##101
survive
breastfeed
synapse
relief
vim
##bound
hydroc
##erate
inference
coronal
presynaptic
modulates
sput
merg
vocal
aggression
##ropathy
parenting
periphery
nal
duod
vaccinated
hospitalized
autoantib
nond
##ecan
abi
distinction
##imetric
##asi
##unn
exclusive
##yrin
fk
him
hands
epic
coherence
gar
adiponectin
immunodeficiency
electroc
threonine
islet
pyramidal
bioinformatics
oligodend
magnesium
ja
broth
earth
centres
##yclic
cigarettes
tryptoph
athletes
​and
##tise
visualize
metric
pick
acetonitrile
official
supplied
striatal
artifacts
contextual
nv
replicated
century
postpartum
observer
postoperatively
acquire
graded
fluoride
neuropathy
housing
eag
##orthy
cdcl3
releasing
ethylene
confined
##aded
skew
dotted
ranked
electrophysiological
##amers
vertebral
##09
rinsed
vw
aba
##iation
electrochemical
cw
##plicity
gelatin
##plates
rationale
fum
analogs
testis
##0000
flash
##ifies
residence
biliary
##mission
xenograft
α2
strands
icp
##ignific
##agland
derive
gift
##irc
leica
excised
biod
virtually
voluntary
nanoparticle
inspection
##atonin
##ipl
##mut
transforming
nu
##ethylene
follicular
perspectives
updated
##etting
upr
##iately
rid
gains
rescued
sav
articular
marital
exhaus
dul
catar
islets
neonates
glp
intermittent
rcc
##sk
allergy
monomers
reproducible
migraine
rbc
reviewers
##onuclease
##s2
mdd
progressively
operational
leave
##ju
creb
security
cysts
##etamine
##ried
hsa
corresponded
tow
##alpha
unlab
palliative
##gar
##rex
threatening
labels
reprogramm
cd25
ebp
denote
consor
stigma
spanish
today
obviously
##usk
synov
##y1
myocardium
lake
cha
007
platinum
sut
cited
glycogen
dishes
dengue
##side
pier
##ville
sybr
pde
searches
supervised
mbp
satisfactory
ontology
fluids
139
hyperm
deterioration
moist
fg
desirable
hydrogel
##oti
melting
spain
flexion
korean
niche
subt
pth
february
##anda
anchor
platforms
transcriptase
mens
asymmetry
welf
##oni
insects
##duction
−2
dere
parac
alkyl
spanning
discriminate
shapes
##genesis
cooperative
dimers
##ignificant
promise
adenovirus
endoplasmic
hole
cd14
transported
t7
opinion
delays
micrograms
floor
pictures
trabec
melatonin
computing
daw
interfering
143
expensive
teachers
aneurysm
digit
pink
welfare
aliquots
##itum
ih
4h
phd
##illi
plateau
##ophyll
##abd
##omyc
marks
lymphatic
infarct
lacz
snap
twin
glycolysis
revealing
malform
8a
compensation
propos
##pra
1983
elution
146
95°c
dispens
spreading
tibial
allogr
islands
waist
##ughter
vd
amd
conception
##vac
cag
vertebrate
pestic
dab
imagej
litterm
maca
livers
ionization
##itter
mcherry
##aturated
exactly
fak
stochastic
##amph
herpes
##asp
##ensor
query
freedom
squared
5h
##quar
ire
dha
c5
##inator
##1r
attain
reliably
cd11b
compensatory
stabilize
acceleration
atherosclerotic
argue
staphylococcus
trif
keratinocytes
biases
hazards
i2
rhiz
generic
##spec
pseudomonas
reciprocal
vom
ovary
##polar
hap
dermat
lectin
##tification
archae
diaph
caucasian
genital
cas9
surrogate
prime
aforem
fruct
trypan
saw
##agonal
##fall
aforementioned
resultant
emissions
sagittal
regularly
quadru
tryptophan
medicare
3000
proteomic
lncrnas
pec
##eb
signed
unre
adequately
pcdna
olympus
disparities
sphing
##erated
guan
##ulator
gyn
##epith
heated
##onder
adhesive
stroma
280
idiopathic
##amic
habits
dilutions
dephosphor
##opyr
missense
breastfeeding
##hed
caregiver
##ordant
capital
##akers
chemil
competent
sulph
granule
gat
euthan
pum
cftr
chemo
##uzumab
orbital
website
origins
condom
fsh
##aphase
tuning
kingdom
tp53
##ser
##rosion
denoted
##ker
##acl2
sj
cred
declare
augmented
determines
paid
suppressing
proteome
permission
ifnγ
hits
approximation
retain
ocean
multis
stressors
polarized
##lips
ingr
##ishing
bioactive
##uncture
##oglyc
endoc
bioavailability
##ptic
5000
covalent
##anium
burs
##opolys
brought
nafld
reflux
mitogen
npc
##arium
008
cough
atlas
##requ
recommendation
##igibility
##ctc
locomotor
hk
##−2
dissemination
cranial
toxins
impr
amide
##bd
141
rein
globally
##organic
collecting
clients
divergent
amine
##ican
john
endpoints
##urnal
palmit
switzer
canine
macrom
eat
##md
anomalies
prostagland
148
problematic
147
declaration
freezing
blockers
concerned
breakdown
triglycerides
thaw
interd
##acycline
harmful
scanned
pivotal
programmes
flight
dimerization
bootstrap
##zo
beij
hid
analogues
1st
oocyte
##play
catalog
##osus
switzerland
grate
##otrophic
hypothalamic
##yroidism
##afenib
dendrites
grades
mdm2
freshly
sedent
vasodil
nause
drivers
microbiome
killed
mosquitoes
alloster
caudal
##health
fibrillation
adrenergic
pms
expertise
lastly
acup
accomplished
topology
rose
142
convergence
skull
explicitly
dedic
game
##type
grateful
constrained
attentional
initiative
soils
consolid
capabilities
mtorc1
##yer
ash
##iling
perturbation
perfused
taxonomic
raise
bk
ikk
finite
crt
gnrh
##acil
hypothalamus
pah
modulus
lupus
##ostatin
##inki
alters
phagocytosis
##ifiers
trunk
cohes
robustness
arf
ascorb
##acetic
classifier
cef
autonomic
compact
casp
##eller
demonstration
admissions
destabil
lever
7c
illumination
nested
mutational
regime
oncogene
lipof
infras
ngf
antipsych
progeny
##aign
rag
redundant
eligibility
brad
ligament
contractile
153
placenta
##rogens
proliferating
hels
##idi
follicles
census
nausea
niger
folate
##elect
transferase
##1p
chambers
sparse
monotherapy
##uing
bever
inappropriate
occupancy
ics
waveform
pir
2f
corpus
##omo
##ativity
##stem
integrate
topics
##idelity
foss
conflicting
##uan
lowered
pmol
bromide
##bur
pge2
succin
ml−1
neuroimaging
hed
sedentary
##cy
##pal
##opter
enlarged
##kii
register
gradual
biotinylated
##actor
terminals
insol
##retro
s8
cacl2
microglial
##pol
ew
nct0
pointed
##lipidemia
##ods
comprise
resolve
balloon
##ipital
##uclear
##apine
beijing
theories
##verty
##cing
##7a
tca
kil
cooperation
silicon
ease
perinatal
notew
aaa
phylogen
mcs
1982
programmed
turb
##ubin
##rication
immunoprecipitated
##omatous
##astin
stepwise
bent
ix
inorganic
explaining
nearest
triglyceride
poverty
ejection
voxels
supplements
##lp
tfs
helsinki
possibilities
antiretro
exceeded
births
ensemble
comfort
successive
displaying
mitral
viscosity
canadian
refined
epi
histidine
creation
fits
friend
tot
implying
##band
teams
splenic
##quartile
ascertain
noteworthy
disordered
900
##ishman
oz
neurop
johnson
taste
hyster
tether
cing
##08
kits
##ulmonary
branching
##emed
physiologic
humid
unres
highlighting
strip
##atine
suture
loads
cholinergic
willi
avoiding
concordance
implementing
##mr
thiol
serving
diameters
cochrane
posttrans
175
tomato
abrog
interquartile
supervision
typh
regulations
nodal
septic
catalys
mps
introducing
##titude
pcl
fellowship
fabricated
##osh
mets
aj
administrative
causative
##usted
barc
easier
microvascular
chemically
chitosan
fx
lrr
scientists
suffered
##ris
osmotic
emg
hill
vomiting
rearrangements
##wa
extends
alignments
nhe
ctl
collaborative
##itively
kp
offset
##b3
##oxygenase
neurogenesis
##odia
gpr
sarcoma
##po4
worms
une
interactive
superfamily
##py
recycling
lies
homogenized
cca
rac1
outbreaks
##nps
scaveng
survived
campaign
chloroform
hub
ltp
imposs
usefulness
recessive
##omod
dedicated
ky
curvature
dispersed
contour
tunel
hygi
rct
couples
combine
168
##list
crf
##elia
vestib
synapt
##pling
specialist
operator
fidelity
electrom
sq
wb
lond
##ortem
precipitated
##burg
##arbonate
hyperglycemia
attended
postulated
gsk3
1640
bacteri
##omed
editor
depolarization
turned
solvents
hydrophilic
messages
mca
g4
resusc
##asting
152
refinement
biosynthetic
integrating
excited
chaperone
frail
##asal
cpt
averaging
ketamine
pollut
triph
##bir
academy
limbs
monkey
consortium
routes
##ogether
angular
resemb
bacterium
discharged
sixty
2019
##urations
rhin
guar
entropy
##irection
##oproteins
prey
altogether
unid
triggering
##inates
mm2
nude
1f
covariate
##omet
##yal
buff
##olymer
microrna
icam
raises
interneurons
porous
alp
##forward
apex
song
imbalance
149
dysplasia
multil
deeper
gα
##07
nanoc
curric
##inia
adopt
irreversible
suppressive
h5
wounds
osteoar
psoriasis
reperto
photoc
##odom
165
noticed
##amed
debate
pleural
margins
caffeine
p16
ether
conjugation
acetone
chemotherapeutic
ward
quer
##ovir
##arom
##avidin
implicit
abdomen
##ception
identifies
fad
##izable
geo
federal
##ucl
norms
confounders
cardiomyopathy
bundle
msm
dropped
anatomic
aspiration
von
pacific
##psia
underlie
##zer
visually
bones
rearrangement
cohen
covariance
##asty
secondly
abscess
oligomers
erythrocytes
associates
instructed
kat
##otransferase
autonom
fluorescein
spite
##ael
##plastic
scholar
##ivalent
##edited
##ja
sacch
asper
shortening
dichotom
style
deterg
ink
hrqol
antidepressant
cet
exit
##ony
adoption
nci
quarter
dair
wn
##ikv
glycol
pbmc
ingestion
martin
calf
156
satellite
achievement
carbonyl
cows
##nary
attitude
employees
vegetables
##ionic
histogram
##ei
midline
##ortal
franc
interviewed
peroxidation
droplets
arousal
##floxacin
##book
adc
iodide
appropriately
1×
phenolic
glioblastoma
fibrinogen
mm3
myr
anthr
synucle
dermal
heavily
##oler
##rectomy
##105
exerts
interplay
##arith
allo
spray
polymorphic
arsenic
crossing
stic
hscs
##tip
designing
jejun
##emporal
cott
##itish
leishman
differentiating
##obut
minus
antiretroviral
traditionally
h3k4
##orin
##omegal
##adj
nadh
denv
alternate
microv
##06
fcs
bull
solar
bilayer
silico
portions
##nx
anter
smallest
necrotic
##ggt
usp
##net
homologs
ji
perioperative
pipeline
impedance
feelings
postmenopausal
##amines
##udin
##ako
rhoa
nap
##class
cea
##ropl
peroxis
##tran
morbid
proteomics
enos
denaturation
rum
cll
##ipt
ibm
##omeres
biophys
conflicts
v3
purple
##bumin
lamina
abnormality
subscale
habitats
neurologic
trimester
##azone
discrepancies
synuclein
maximize
microd
emphasize
chondrocytes
repressed
reprogramming
formaldehyde
catch
microsat
##5b
avoided
lithium
kc
microw
menstr
planar
##personal
fev1
deemed
hyperc
##fulness
158
undetectable
##tron
mrs
diffus
neuroprotective
arbitrary
debris
isotope
subpopulations
soybean
wean
battery
logarith
electrons
harbor
##ios
##obac
157
##opathology
impossible
pater
dish
flo
##nals
##tir
##partic
book
##ecyl
hydrochlor
explanations
deposits
vanc
commitment
worked
wish
skill
neutralization
gingival
holding
localize
pcna
esc
win
stabilizing
##athers
##cnac
##ostat
p27
insoluble
washington
originating
tags
prompt
political
hypo
154
dairy
siv
ineff
catechol
genotyped
##±1
uncommon
##pred
tailored
fourier
pathologies
##utely
##otopic
degs
##rug
places
shut
##imetry
bg
symmetric
ancestral
interpersonal
innovative
myofib
overestim
##fish
constituents
##oreg
pfc
bod
sexually
retard
pharmacy
alumin
mexico
managing
literacy
repressor
ensuring
fractional
reass
stressed
tms
belongs
partnership
##oplasia
##r3
subtil
mutual
iκb
searching
hatch
intens
convert
holl
feeling
macular
argued
mucin
contract
monomeric
##dy
tsh
mtb
##iab
london
grew
##iles
possesses
nag
accr
gabaergic
glucocorticoid
strictly
myeloma
##apit
dbp
uniformly
##isson
maze
texas
151
married
crack
neurodegeneration
##140
eleven
##cellulose
steel
159
organelles
##kins
neuroblast
gcs
overload
retrograde
fertilization
##icate
explains
cities
continuing
renewal
f3
codons
analgesic
ik
##ectom
absorbed
abstin
throm
efficac
catalase
##lyl
nak
##ticals
epidermis
##ubiqu
##orh
mention
nation
tar
nicotin
aller
vegetation
trib
3t3
##ylic
##ogeneic
message
spaces
narr
amplify
avian
##n3
surfactant
suspensions
spikes
independence
encounter
gaz
##essor
5e
osteoblasts
biofilms
##lamyd
frank
dpi
quies
xenopus
cd40
certainly
pand
encourage
candida
nocic
lamb
allocated
ophthalm
tpa
merck
##ycardia
metalloprotein
templates
##irubin
acetylcholine
calibrated
tips
quartile
hairpin
insufficiency
##entic
homes
emerge
singlet
uniqu
##orbent
sexes
dar
t00
protects
landmark
##met
occupied
blocker
subscales
store
persisted
peers
cen
mobilization
bacillus
centrom
cutting
weighed
dbs
##fluor
titration
##odialysis
stone
lex
##9a
##tl
immunoreactive
satisfied
##obenz
exempl
evs
dependency
pancreatitis
antigenic
−20
phospholipid
germination
corticosteroids
sister
neuropsychological
transc
antifung
##odem
telomerase
##onds
hen
undersc
multicenter
h3k27
histamine
salv
wanted
hypersensitivity
##acs
tracer
scaled
aeros
mail
crystalline
012
dysp
magnet
##entric
##enteric
densit
energe
##timal
calcification
occipital
##armac
got
##graphs
##acyl
theta
occasionally
summarize
cleft
matches
antioxidants
##tes
cfs
vent
commission
ingred
entering
##holders
##etical
##osure
1981
gynec
organizational
cannabis
pitch
##aver
chlamyd
papill
kle
excitability
##igel
freeze
solved
specification
hepatocyte
enanti
dust
##otubes
mimics
myocytes
capsid
##isher
advis
##amen
sheets
aggregated
##gene
cultivated
compute
advers
oligos
​figure
vh
##ortical
analgesia
veterans
analytic
reaches
coverslips
bronchial
amn
overt
stoichi
pulsed
##epithelial
theoretically
holds
analyse
reconstituted
##xx
pores
arises
cargo
##ypert
siblings
cbf
##arean
##bilical
indig
293t
##ondition
vimentin
hus
zno
surviving
##103
irf
inhalation
senior
sheath
osteoclast
replace
tsp
##place
priori
t2d
elab
jose
sod1
##osum
configurations
drafted
##04
dss
subtilis
compensate
##oned
psi
conjugates
dq
kernel
##atc
##afil
##icip
##eles
mg2
hgf
closest
suicidal
##at1
tongue
lipopolys
wake
rim
aic
solving
##adish
##param
##ancers
##echanical
perturbations
allosteric
##idia
wallis
discontinuation
encouraging
pups
thinking
uncontrol
##iesis
testicular
complaints
centros
ica
veins
judged
cytoskeletal
migrate
freely
server
discarded
follicle
p300
##flav
projected
1970
playing
simulate
##otropy
flor
drg
##bow
traf
noninvasive
client
##e2
microflu
researcher
gtpase
tracts
sphere
dulbec
lncrna
retur
##istribution
##amil
cotrans
##ein
affin
##ophores
era
drying
tors
eagle
inversion
e6
erad
synovial
realistic
bending
scat
obstac
cataract
symbols
shh
iodine
##atit
009
stool
bolus
mosa
##thromb
resorption
cultivation
##rogenic
stores
prophylactic
transducer
answers
256
vps
dx
f4
father
observers
fi
interfaces
municip
reactivation
gastr
##umental
innovation
clinicopath
##opy
guarant
entity
k2
horser
dulbecco
scn
hyal
ili
spines
##erman
sz
tubules
music
hidden
constitutes
ammonia
simplified
##ostatic
ecosystem
extremity
british
2nd
streptavidin
wc
microbes
sonic
horseradish
ipt
thalamus
##nutr
exerted
##enzyme
endors
fairly
##atrol
rois
pes
pierce
paths
jc
orbit
krusk
##clim
unfav
plasmin
ich
benchmark
zip
synt
nucleosome
biph
##oxicity
hydrogels
timely
##4b
##sch
borne
xenografts
##iazep
documentation
crossed
journals
pharmacokinetics
undergoes
cms
##my
descending
##ifferentiated
carn
summarizes
orthog
##enchyma
##lv
brainstem
##aterials
arranged
repetition
ligated
cook
##veratrol
nh4
##fen
descriptions
connective
sit
chap
mandibular
linearly
classify
scramb
femur
ibs
ors
lie
repeatedly
ngs
alkal
scheduled
cds
computation
##iber
##glycer
cup
##arial
monte
cotton
stimulatory
insensitive
aor
ended
scin
vertebrates
entities
endosomes
primed
230
##ami
##etrical
glycemic
uro
sequentially
dominance
cuff
##erving
caries
ptp
viewing
entries
axes
suv
schemes
dichlor
167
durations
acl
##olecules
sox2
unn
dnm
thymus
##d4
##ocompatibility
screens
025
infrastructure
annotations
afm
1x
resveratrol
expanding
contempor
charges
30°c
things
260
##inin
eukaryotes
gef
syringe
##cam
converting
25°c
osteoarthritis
emphasized
discipl
##force
connecting
whites
medicinal
earliest
osteogenic
sati
cml
##ragm
oligo
outgrowth
giant
rounds
eigen
incubator
kegg
crosso
denmark
eds
irb
##patients
seques
osa
clot
##ushing
histologically
##ectamine
impacted
relie
dissolution
glycan
regards
directional
ssdna
##jo
pon
orch
lentiviral
neighbour
preferential
mip
paed
##ido
speaking
wildtype
##aliana
##oblastic
adaptor
umbilical
aldh
psd
##keletal
exercises
##ething
elast
consumers
hir
stakeholders
##kes
infiltrating
3f
##2d
##oscopic
##pheres
multidisciplinary
##nutrition
fen
yap
##bt
monolayers
##etts
##rophin
fructose
prescribing
radiographs
paradox
hns
pieces
screw
##126
swedish
ups
troph
helper
ban
lacked
couple
cct
asn
infect
##iner
fibre
tends
fabrication
uas
##bling
something
click
hod
##rob
##ught
##iferative
intravenously
reinforcement
eae
insertions
dsb
##tains
biologic
cd28
resili
pik
omega
develops
##ographically
protecting
cd16
aun
hypothetical
tried
dutch
discom
##ardial
proxy
ductal
cofactor
phosphorus
fibres
cps
##isite
hinder
taqman
fibrils
quantitation
expectation
begins
##irectional
matlab
ureter
instrumental
164
scid
##heads
career
##125
cationic
polyn
interm
qs
kary
prednis
##iley
micrornas
##endicular
sre
##osensory
##aromyces
lod
conges
collective
sweet
##ourse
stretching
##bio
px
dextran
positives
programming
##endocrine
163
pole
perpendicular
agencies
sociodem
toll
hygiene
intelligence
solve
##ela
##pg
urgent
stirred
ec50
xanth
parenchyma
waiting
antifungal
gdp
richness
bca
cingulate
cephal
lysosomes
neurotransmitter
allogeneic
bz
worksh
expectancy
endoscopy
##obacterial
##imp
##104
kruskal
refractive
bevac
tlr2
gln
169
rising
dispersal
drift
incremental
matrigel
arach
spectrophotometer
##l4
david
##uloskeletal
crest
192
bevacizumab
toxicities
accompanying
##len
religious
166
poisson
mgl
enlarg
presentations
liv
laminin
repub
sedation
##05
thaliana
##riage
characters
colors
##wood
##ications
pose
alternatives
characterised
##ucleotide
paul
resected
##i2
reserve
escal
ambulatory
gmbh
##fo
strikingly
acupuncture
sigm
illnesses
##aq
##132
detox
shrink
##ilis
##kary
##bred
lactam
moi
radiolab
1500
maldi
transportation
untrans
temporary
ineffective
##l3
d6
##oprotective
serotype
originated
distinctive
constraint
regenerative
suited
spons
composites
rps
chow
gfr
sputum
helicase
autophagic
##ogaster
cloud
musculoskeletal
##rospinal
##urgical
replacing
presumed
spacing
morphogenesis
paw
##unctiv
thio
shifting
162
quit
discomfort
operate
##vastatin
4f
##car
hur
departments
lipofectamine
nach
repertoire
immunomod
flowering
neoplasms
isomer
3rd
insectic
dsrna
ecc
##1c
autops
h1n1
ali
ranking
encapsulated
cts
really
dereg
isoflurane
heterologous
contrasts
##oac
belief
engr
igg1
epa
##opre
resuscitation
hon
owners
applicability
##tm
prompted
affinities
danger
mcm
faecal
silent
raising
atax
firm
##arity
compromise
##etine
myd
publicly
tdp
##oglycan
cleared
##anin
triz
##atation
impuls
glcnac
6j
##ao
lethality
geometr
dick
##plasm
##che
##otemporal
medline
##uzz
catalysis
##han
nh2
developments
swiss
attacks
##onium
fractionation
crystallization
ultrasonography
customers
ancestry
miller
pathophysiological
dioxide
fuc
facing
existed
750
cz
electrolyte
hered
nikon
exceed
rectang
vapor
vibration
drives
isotype
crops
pairing
proteolysis
choline
##arboxyl
choosing
soph
##ui
primates
infertility
starts
cerebrospinal
##ozoa
##tructural
encouraged
autonomous
multif
enhancers
cerebro
##izz
agriculture
##osper
declines
cylind
republic
looked
mtx
asperg
contractions
##co3
ets
allergen
erythrocyte
companies
##istar
##inis
worsening
jak2
accid
320
##etrix
aux
ideas
qualitatively
##amel
cron
grafting
##cting
nearby
digestive
administer
curative
psychosis
moisture
extrapol
##hou
invited
execution
annually
anticoagul
activators
ubiquitous
##ylase
attenuate
poison
##ecess
grains
phenotyp
malt
##viruses
xr
retinopathy
glycans
autoantibodies
statins
cycloh
imatinib
177
damp
palm
##gac
vo2
##mias
##quine
alcoholic
scattered
switched
8b
##vo
ccc
##1a1
##wid
disabilities
cpr
motivated
homogeneity
360
hyperactivity
superim
##olk
vice
comprehension
statements
venom
synthesize
michael
suggestions
surveyed
unfold
pie
exceeding
documents
gemc
mirror
lem
ferritin
##β1
subcutaneously
##house
permeabilized
atmospheric
1979
ageing
trizol
scavenging
averages
integrins
pq
terminated
neuroblastoma
##2α
hay
kt
manifestation
##ubiquitin
melanogaster
log2
epidemiologic
tent
sab
##eption
aryl
horn
##n4
orthogonal
nephropathy
##exp
##odynamics
1−
appoint
011
disappeared
distinguishing
cnv
reform
sugars
prl
##imilar
constric
##eping
##east
disk
photograph
bak
arrowheads
histograms
contrad
afferent
mosaic
##juana
shaking
cbt
ptx
infused
ptc
rom
naoh
lipopolysaccharide
##yx
totally
marijuana
##rc
phospholipids
sid
cooled
##ario
update
scalp
affym
##iana
packaging
creates
warf
fork
##enem
cultivars
postin
asa
thoroughly
recapit
osteoblast
horses
ebi
##esophageal
##uish
coat
adenine
ultimate
##ynchron
##metic
sentence
##occ
valence
backgrounds
##inositol
s−1
##tructures
##thral
lactobac
##organization
##roplasty
##iciencies
185
abortion
rdna
dith
plasmodium
stat1
ami
##width
recognizing
wistar
pgc
edited
##igan
heterodimer
synonymous
completing
operon
degenerative
affymetrix
l−1
174
ellip
nest
grading
thp
sprague
intercellular
intubation
collapse
licens
drawing
voice
vf
neuroph
##omide
huang
##aterally
gemcitabine
mj
residential
try
205
72°c
bilirubin
hydrocarb
outliers
cq
##ozyme
##ophosphate
bcg
##urium
##olet
fibrous
elective
straightforward
cilia
cores
revascular
thal
eif4
sepha
military
##albumin
fetus
breed
camkii
reacted
##idone
mercury
inflammasome
161
carbox
selectin
sociodemographic
pm2
uncontrolled
verb
alph
etch
t0
resilience
sepharose
##odegrad
##aro
##prol
prioriti
movie
streptococcus
gauge
veterinary
neb
carboxy
epo
vestibular
##cetin
publish
##v2
outd
tert
clarified
antihypert
cnt
unnecess
inheritance
##bles
uniquely
cel
##uretic
advoc
##opulmonary
##alanine
##epsin
palp
characterizing
longe
##yles
leadership
spi
##ava
introns
sounds
merged
swimming
galactosidase
##dis
lobes
##iments
cognate
papillary
ki67
appeti
cdc42
##brids
##arynx
##lated
midw
lewis
coming
176
dawley
##odi
diagnose
astroc
##functional
undifferentiated
##imension
salinity
painful
172
histones
pun
readers
na2
cd19
maxillary
detergent
measurable
buc
aminotransferase
curriculum
incomp
182
dyes
cryo
u2
unequ
immunocomp
sensation
packed
##role
neuromuscular
carlo
proteinuria
convenient
##adjusted
remainder
tss
joining
##heim
kinet
broken
mpt
exploited
volatile
migratory
##tide
crossover
conference
sp1
##aminase
aquatic
egr
##oplasma
adjustments
173
eosinophils
trabecular
zym
offic
immunosuppression
l3
efficacious
##uric
impairs
consumer
thrombocyt
cochlear
colocalization
drops
7d
homod
##hp
ascending
immortal
preserve
ay
##109
definite
##oxia
##ulture
este
dal
fistula
checklist
##process
##180
pai
##efined
dlb
engaging
spores
##ethylated
svm
abstinence
ltr
electrocardi
##nc
zeal
rad51
ctd
physiologically
prostaglandin
##orable
ctla
pathogenicity
##print
longevity
ral
##olys
hong
budding
stressful
polyethylene
neurite
microarrays
sensitized
##agl
subpopulation
desire
ppv
pcdna3
groove
titanium
italian
##essed
myo
nls
compositions
mz
reality
snail
xp
tcga
hemodialysis
indigenous
walth
##athy
nore
##uff
jones
damaging
neurobi
allograft
progressed
unip
consul
hundreds
calp
accelerate
protons
spirit
erp
fathers
texture
herbal
accessory
##isks
perkin
1g
cgmp
efficiencies
##iens
clades
immersion
adiposity
discrimin
homozyg
##1α
cascades
adver
amen
lose
yu
##fly
sitting
##epatic
##oconstr
wavelengths
appra
pertain
##isd
neuroendocrine
##apolis
##tz
till
tensile
pharmaceuticals
waltham
silenced
nitrite
secrete
harvest
g3
specialists
versa
menstrual
flox
galactose
zealand
plug
bost
−80°c
##airs
mant
pcc
ej
libitum
surrounded
##rb
attribute
artifact
##a4
dissociated
littermates
##enders
subop
##formed
acclim
##issive
srs
virolog
potentiation
nlrp3
sic
5f
acin
##elli
newborns
##ipine
salts
hct116
195
volumetric
rows
##4002
thousands
rights
##atric
fuel
##opathies
sgr
accumulating
cscs
connect
indoor
micelles
imidazole
paternal
kerat
posit
dsbs
cck
irs
hemorrhagic
184
chemiluminescence
4000
225
piper
##icul
amers
patterning
contigs
nasc
coul
professor
cbp
cyp3a
slopes
photosynthetic
microsatellite
##tillation
thirds
diminish
bundles
extrinsic
civ
dodecyl
##imeter
modular
intu
kel
##iders
##urate
immunosorbent
hrv
s9
wit
discontinued
methodologies
resembl
disclosure
intran
williams
hypoglycemia
alive
cronbach
stems
jm
##k3
baby
vancomycin
ei
gp120
##erves
otus
silic
bicarbonate
vip
diaphragm
##alled
fetuses
anesthetic
condensation
##olipid
geor
polyg
meoh
litter
##atable
##but
##ume
thickening
ncr
fibrotic
medicaid
imposed
tolerant
##wich
##yrate
amersham
hmgb1
jam
chronically
hat
intakes
##graduate
cages
assemblies
oxidant
capill
manufacturing
discer
humidified
neuroc
ezh2
enamel
ncs
vortex
deficiencies
h3k9
fission
##157
##ldl
incubating
immunocyt
asterisks
6h
confid
elongated
bos
zyg
biochem
adducts
anderson
##pled
glia
microfluidic
glucagon
vesicular
cb1
warfarin
macroscopic
proteinase
fifteen
formulated
##uistic
od600
##abe
anisotropy
tetracycline
airways
authentic
179
velocities
managers
k1
robot
worker
paralog
##ieties
interpreting
fluoro
flavonoids
intoler
phylogeny
mst
##omotion
recognizes
contemporary
surgeries
##kd
mediter
##h2o
failures
bivariate
meiotic
##terase
##ilin
dismut
##aac
wheel
wrist
gaze
labelling
unexpl
oblig
instant
infectivity
opioids
adipocyte
##istinguish
cerebrovascular
pale
ancest
pss
ulcers
functionalized
subfamily
183
daughter
nuclease
folds
wealth
##eke
mesenteric
helping
psychometric
amorph
ccr5
endo
technological
mediterrane
borderline
auxin
##kl
sts
inositol
plga
##obe
gan
twins
sirt
carries
thymidine
##ococci
madison
evolving
trast
nitrocellulose
equiv
surgically
polyphen
microl
hips
parath
ly29
iterative
discla
glycoproteins
##8a
seventy
1016
conting
##yzed
realized
incontin
lasted
##x4
placing
undes
downloaded
reproduced
carbohydrates
restrictions
granular
saccharomyces
neutrop
acth
dunn
##rost
##b4
##othing
nanog
detachment
segmental
tolu
##apopt
uterus
thanks
permits
fails
reasoning
wel
aberrations
epileptic
primate
renin
unadjusted
pluripotent
synergy
delivering
aps
smc
kindly
##ypt
##artz
lpa
quasi
folded
##iet
sure
hereditary
graduate
##ny
hydroxylase
e7
6e
dcm
increment
answered
##ocyst
epr
sustainable
deoxy
photographs
koh
gvhd
suboptimal
pulp
acknowledged
inhab
cbs
retardation
productive
##ball
meetings
migrating
performances
getting
apob
homo
##editing
##imide
arrival
eigh
myd88
chop
adsorbed
##urc
188
acetylated
transit
minimizing
enlargement
hots
topological
endotoxin
##zymes
204
csp
ipscs
passing
rigorous
##tii
virg
norepine
##107
1978
rfp
thrombo
discs
##ofol
v5
photoreceptor
hospitalizations
physic
##km
steatosis
biotech
mycobacterium
exome
kj
boston
##omnia
lor
egta
preec
dsdna
multidrug
polymeric
honey
lind
carol
tunnel
##istinguishable
flip
brack
washes
##mid
##isco
lumin
patent
pcp
##aids
scs
noting
##145
pdt
##matic
##esus
oss
transparent
accessed
dpp
2g
psychopathology
hunting
nose
mucus
trastuzumab
outputs
##pson
−3
penal
dilated
##using
norepinephrine
carl
inhaled
antihypertensive
a4
##icidal
015
##nn
microplate
parasitic
weather
attendance
##neasy
##omorphic
orientations
fw
fing
hypotension
rpa
##entral
doxyc
bird
septal
##ostomy
homeostatic
fungus
oxyt
counterst
etoh
unnecessary
maf
stata
districts
##cripts
dilation
collections
tank
clarity
nfκb
desensiti
gil
billion
methyltransferase
bpd
fusions
harr
continuum
pgl
branched
171
horse
##rolimus
spheres
ucs
##portion
confluence
flood
augmentation
cd20
shares
##low
##biased
ccd
hnscc
registr
ton
makers
##itan
nominal
periv
pcos
virions
approached
##mium
ly294002
schwann
csc
##127
endosomal
sanger
##isal
##icious
aerosol
quantifying
hyperpolar
##lass
bap
yam
186
cations
cyclase
##reen
concre
oxygenation
adenoma
##gcg
mean±
went
personalized
vb
##2r
nfat
##osom
dre
seropos
nickel
##glut
gle
normality
paf
l4
##kat
##relin
carp
ready
##106
metagen
chlorophyll
periodon
##imensional
confers
##ocortical
##aind
verification
206
hydration
lactic
b3
euthanized
##aches
maintains
wal
igfbp
##ashi
moral
xu
workplace
planes
rw
unsu
tablets
rotational
binge
dfs
evapor
gard
##yi
dub
unbiased
dehydration
indistinguishable
schist
chitin
collision
covalently
neuropathic
transactivation
necessit
3β
##yday
abiotic
neurodevelop
cytology
retroviral
remember
humoral
plos
d4
histopathology
repos
internalized
hybrids
##nac
plas
bell
##inally
jurisd
diploid
necessity
propofol
oxford
##amicin
lncap
rbcs
##worm
##562
rhythms
everyday
fried
expresses
speculated
huvecs
advertis
##aag
muller
##posing
mutually
mining
orthologs
blo
microwave
kcn
mcd
arrestin
omitted
antenatal
##eterm
indis
killer
opened
270
doxycycline
##urea
1975
ovaries
psychotic
shoot
lipase
##erin
relates
serological
dnt
paediatric
sophistic
heads
tir
mmps
diseased
##entified
nitros
##enses
chickens
jac
bread
##edema
pvdf
nsp
aneurysms
##abolism
hydrochloride
initiatives
##graphy
cornea
dismutase
epoch
interconn
shim
rever
jiang
550
prion
manifested
fec
legs
belg
clath
##anil
consequent
astrocyte
##ognitive
packing
vap
##udi
mcf7
prosthesis
falling
basement
ghrelin
immobilization
thrombus
moieties
ao
214
tibia
264
##ggc
teacher
membership
splenocytes
##1δ
messenger
g6
worst
money
bx
quenching
lyn
subclinical
ideally
203
##artan
unedited
sport
##opsin
##encia
flower
pediat
##uling
biodegrad
hypother
ipa
defines
swine
plain
autopsy
vicinity
##ingly
##burgh
mmr
amorphous
abr
bioc
conferred
esophagus
distortion
##birth
##pb
neovascular
h7
elabor
ritu
preceded
##2o3
pointing
latest
advantageous
rankl
destro
presch
contraceptive
quercetin
translate
##itely
transwell
ipsc
foam
ryr
homogenates
intramuscular
s10
crim
seeding
prere
##apoptotic
meningitis
ams
drinks
incontinence
excel
esters
originate
adenomas
sorafenib
rays
metallic
dispro
##ounder
##adm
##adren
jaw
##oadj
argument
tetramer
longest
##ingual
stringent
shedding
##opress
flowers
occupation
##rα
cytometric
cathepsin
prokary
tracheal
##ulas
pdac
acceptability
gond
trapping
##apto
capacities
chromatographic
187
##inescent
##oadjuvant
##iversity
malnutrition
1977
mediterranean
pollutants
lymphomas
ecosystems
heterochrom
coff
labour
anthropometric
mum
pals
##atergic
colonoscopy
synthet
disadvantage
unfavorable
##bia
196
##ulae
episodic
##tebr
proteas
neoadjuvant
##ophosphor
accommodate
nhl
eradication
myb
vii
abundances
##atag
adaptations
##tering
ultrasonic
swallow
eliminating
farms
nascent
investment
##123
contacted
##ason
1∶
radioactivity
segmented
bout
jump
listen
##oplasts
nup
aluminum
normative
convenience
178
##del
bpa
testes
dephosphorylation
insomnia
js
chemotaxis
business
##q1
tonic
addic
hpf
html
parasit
kines
intercept
##aemic
##122
##alent
consciousness
pill
p0
##ritis
petr
daf
222
guanine
appearing
β3
##ogroup
##uchi
varieties
pst
conjunctiv
offering
pandemic
rituximab
pda
neurophys
violet
coastal
thermodynamic
##ilon
subcortical
glutamatergic
shot
##yb
nonh
ceramide
phosphatidylinositol
##encl
locomotion
copyediting
vte
sentences
vsv
arrhythmias
likert
butyl
scarce
##erty
dislocation
backward
consolidation
p62
transferrin
aldosterone
grp
perfor
silk
frailty
disass
buck
multin
##astically
dict
##160
cope
observing
ctx
norway
aven
##tg
angina
recon
##itoneally
##nr
lignin
disin
serotypes
##ilton
bear
marginally
pml
bms
capillaries
14c
223
lept
cary
pj
##ipr
respondent
potato
bisphosph
ampa
oils
twist
vitre
dielectric
heritability
##itine
##iration
1200
orn
thyro
proceed
pab
rhesus
181
inward
disclaimers
funds
olds
shortly
##agglutin
invariant
adds
##ophosphamide
##ostasis
cep
cyclo
##mb
triplet
compares
##ugg
##une
pyrim
##onazole
tracing
perforation
pim
micr
exacerbation
fts
rnap
secure
208
septum
##etaxel
typing
weighting
meals
##itazone
favored
lytic
hung
typesetting
reviewing
ais
##gly
##jug
recruiting
mediation
procedural
221
mend
##wi
##nb
infrequ
ecd
push
##inj
recre
citable
clathrin
revascularization
noct
passages
##izers
prototype
hcg
spacer
docetaxel
printed
##ieu
disagre
##soft
ultravi
boost
##outs
degrade
esrd
denti
cdnas
194
bandwidth
##trial
vdr
ultraviolet
doped
##osides
deprived
##ilson
cog
gliomas
illustration
retest
isra
crosslinking
##ertal
coherent
handle
immunogenicity
willingness
readings
unbound
xrd
##osm
catalyzes
telomeres
biomechanical
thrombocytopenia
##aceous
glucuron
nash
qd
handed
##ifuge
anaesthesia
nab
navigation
##ductor
hydrol
shortened
##ails
##cient
workflow
calcd
cd31
##americ
##eman
189
graphical
preschool
hodg
addresses
##pen
tnbc
tablet
ampicillin
endocard
seasons
drafting
mounting
fort
insignificant
cyclophosphamide
##f6
watch
osteosarcoma
sio2
charts
tz
unexpectedly
##omib
gentamicin
##orial
legis
rew
robotic
nodule
cot
##yne
parathyroid
berg
brand
prescriptions
dysph
shunt
paste
plating
##orr
tons
scot
interventional
##timulated
mexican
##odomain
polysaccharide
hek293t
abstracts
bact
indexes
dentin
log10
electrophore
evolve
##blasts
cholec
##±2
naph
ethi
obsc
##ran
gdm
epist
hook
remed
iris
##test
sie
340
##repres
##plicating
ipv
concurrently
biochemistry
puncture
drawback
postural
anchored
hnr
catalysts
formic
cadmium
##transfer
dentate
computerized
##k4
ou
comment
##his
##yrene
resemble
evap
disrupting
##gtc
cens
bamhi
opposing
tlc
eug
##sen
poul
##pv
dj
pharmacologic
erythroid
assumes
##opoiesis
homa
##iseq
scholars
fent
fle
##axin
scene
nanod
irrele
thoughts
dib
explants
participates
unlabeled
kinetoch
mist
intraperitoneally
symbi
sst
pacing
scrambled
##bing
212
phr
whisk
nucleation
farmers
affiliated
mep
intraocular
survivin
cgi
concrete
gins
crisis
contradict
metac
orthop
ccs
sediments
compete
arachid
uncou
shallow
lk
poses
mercapto
##oo
selenium
holes
##orum
isother
##inoid
epidural
##osex
##1−
pipette
eighty
g0
##oxetine
##agger
flt3
erbb2
##ambigu
faced
fragmented
##aris
esteem
rpl
migrated
nis
016
synchronized
cart
esr
hoech
reside
##otropin
ambiguous
receptive
tsa
##iazol
quiescent
morphologically
allerg
010
##imil
##atization
skeleton
harvesting
vwf
vigorous
tay
##tian
ems
sliding
typhim
b16
russ
nigeria
huh
##otroph
anastomosis
##dv
gathered
huge
neurotrophic
ftir
iterations
kal
hematological
pfa
propidium
ecology
wastewater
demyel
termini
attained
##exual
methan
noradren
spectroscopic
##ropo
piece
oe
slit
msi
pfu
depended
coral
zikv
malformations
thromboemb
sort
abrogated
ancient
visited
spiral
kap
ij
fim
##iva
oligomerization
latit
hamilton
springer
disproportion
porph
##uker
##agia
mcr
1976
ires
##viii
histories
apolip
dissimilar
sophisticated
typhimurium
phenylalanine
overlapped
bifurc
oct4
193
dir
imputation
og
##azolium
tachycardia
arrested
ror
mandatory
202
senti
alternating
transmit
17a
title
edition
grouping
trapped
polyps
manipulations
hoechst
##osci
##ostr
kw
unfolded
thail
##ematics
nets
##istan
assemble
wherein
continuity
interacted
##electro
##uitr
subtracted
##obi
##ynamic
antenna
fanc
metam
iia
p50
vasoconstr
performs
hypertrophic
plexus
encl
attracted
fz
leader
tuned
##opause
thailand
calmod
hodgkin
weaning
judgment
##300
apert
nigr
sarcop
##osamine
modulators
diamond
##acic
irrelevant
spliced
herc
thymocytes
minimized
dealing
periodontitis
complementation
probabil
lactation
wbc
forebrain
biophysical
chloroplast
sealed
##regn
secreting
##tp
masked
facilitation
##quisite
##asant
grip
preeclam
depicts
dates
brazilian
plasminogen
anger
alloy
##arate
desm
unfolding
laws
b12
cd11c
preeclampsia
mglur
delt
gpi
sert
merely
dako
trpv1
##amins
disparity
##traum
natl
foxo
##istine
sedimentation
ip3
autonomy
proposal
disab
reconstitution
glycosylated
paracrine
nw
##iper
imported
chiral
inserts
boos
rainfall
permitted
coiled
accessions
pem
encompassing
supp
sca
symbol
2×
##ompos
lect
017
chair
fcγ
calmodulin
cy5
##ophagy
paradigms
pine
ciliary
beckman
radios
##borne
olive
##enberg
oscillation
##osphere
jurkat
elemental
##respons
crosses
elevations
diagnosing
pei
vv
refs
##ictional
empirically
receives
somatosensory
crohn
##kc
tensor
compensated
uncor
iliac
asterisk
phospholipase
confluent
clark
deduced
juice
##ocysteine
##lan
salvage
apnea
temporally
glycolytic
antipsychotic
bcl2
chang
videos
nmdar
crani
safely
##iao
dispos
motivational
infancy
##andial
disseminated
pik3
##ishment
hbsag
endometriosis
vasopress
elusive
dying
torque
resembles
thymic
aspergillus
benzyl
probing
uric
thf
##zomib
econ
analytes
overd
s1p
risky
partitioning
##phen
cpp
pri
axillary
##ults
elbow
ascites
α4
upl
subclass
forests
vegetable
480
##urgery
diagonal
##vef
stz
ish
gastroenter
sonication
cst
magneti
steric
215
cyclospor
hybridized
integrative
mineralization
explanatory
adr
##grp
microspheres
afp
interpol
quadrant
contrasting
##amn
simplicity
reconstructions
expiratory
infusions
cholangi
##μg
18s
99m
##cc1
fic
216
##trials
inacc
justif
pmn
sos
synchronous
##trin
physicochemical
teg
effusion
endocytic
aurora
tcf
ost
##ocaine
contributor
##urf
pdms
##rofloxacin
equilibrated
urolog
b7
amplicon
##urine
lakes
opinions
incenti
positron
synchronization
hamper
biodiversity
013
educated
##plus
ataxia
##elae
hernia
preserving
regressions
cbl
starved
immunoassay
transcriptionally
##diagn
cytometer
nim
mitigate
wilson
##oprol
accident
referring
autoimmunity
kre
atlantic
plei
nif
##170
algae
antidepressants
gpcrs
carbonate
stan
flows
s1a
maturity
erosion
dorm
comparatively
cd133
strategic
village
##fully
afterwards
thomas
bcs
nsaids
supine
nbs
carbam
aiming
outline
cx43
embed
destin
ferment
cardiopulmonary
notch1
dum
duodenal
parity
informal
pdz
attainment
predisposition
##estock
##change
dmf
delir
equivalents
014
alongside
##ulse
particulate
##qc
pcb
ecori
preinc
##otics
pp2a
neoplasia
overs
oxytocin
##rogl
intent
guang
menopausal
##igl
##odontic
##rexate
gbs
creatine
##worth
lad
bulb
relied
saharan
vib
gently
outflow
deaf
semen
cfp
##m3
##hex
##osexual
dilatation
##eme
wed
fol
gamb
##align
strengthening
35s
##rical
unem
##othi
218
manager
tell
##ekeeping
ehr
livestock
##vities
intrap
##128
adhesions
costly
inclusions
displaced
hexane
specialty
contraind
##phos
affiliations
clinicopathological
cran
lavage
cmr
crystallographic
cleaning
convention
treadm
tcs
dol
vta
##ccc
bj
mechanically
rts
##ondyl
applies
brca2
abb
homogenous
suggestion
complemented
pis
lux
luminescence
5th
escs
##life
##isations
tad
posture
pls
##win
reproduce
contractility
dyslipidemia
##una
##owski
leukemic
twofold
combines
pag
ribose
fluoresc
smoked
##ubated
sectioned
##c4
##uitry
##500
audit
prostatic
thom
fst
##atology
lrp
bins
arthroplasty
donation
##agg
clinicaltrials
ggt
rop
congruent
invertebr
void
moves
##olith
##parametric
bruker
##icion
qc
##119
outper
##acat
##eremia
tj
spiking
chl
wd
bridging
##bu
examines
018
15n
alf
boy
manufacturers
daytime
enteric
##ulous
labs
##eptic
memories
##pm
##acion
dft
mef
myofibro
forear
viet
##imumab
f0
##adesh
x2
stands
tolerability
##anz
mannose
pesticides
clostr
mountain
bior
stocks
ua
binomial
redundancy
conceiv
tubule
methylene
endurance
suite
victims
gondii
sibling
deuter
methoxy
correspondence
coexist
##eptin
ca3
econom
marriage
sixth
9a
thalamic
##osel
basolateral
310
cec
##f5
nts
ending
phi
micrographs
mns
terres
electros
strengthen
##ocysts
triphosphate
meiosis
corticosteroid
sparing
crs
sectors
beat
gsk3β
homologue
alginate
rostral
possessed
appetite
nid
mct
orfs
≥1
housekeeping
methot
dti
markov
##2p
manipulated
209
dehydrated
nlm
glucocorticoids
neutropenia
dermatitis
##acetate
bonded
k562
ddr
historically
newer
##eas
retinoic
nucleoside
perceive
clp
##oprote
pharmacists
##izability
##cu
collateral
truly
mesoth
aeg
sof
inducer
stereot
impulsivity
requested
methotrexate
fourteen
gmp
neurotoxicity
poultry
atopic
nont
sandwich
reinforced
evaporation
mechanics
ascer
mmse
##mn
dysregulated
##king
blunt
hierarchy
##axial
indole
extrav
ocd
probabilistic
niv
spo
ingredients
unmod
implication
carc
##erum
dithi
reorganization
207
suff
wrong
foraging
##trate
##xi
cid
observable
feet
mimicking
##sg
ruled
languages
p30
hil
soma
roman
salient
warming
crosst
intramolecular
reimb
aβ42
ninety
uncovered
culturing
hyperch
analyte
ric
##oste
jh
lsm
chief
fe3
fes
chaperones
theme
dress
coffee
##insulin
tails
misclass
splitting
npy
##enh
##ropol
summed
interior
##eses
loos
gpa
intrath
resis
variances
4th
##okes
rgs
##ofibr
atc
seminal
erythropo
reviewer
fron
discern
utilizes
##oneph
och
##alin
adhere
##enum
photosynthesis
lactobacillus
##atases
corticosterone
##faction
foxo1
t1d
24h
acutely
bridges
kong
blacks
##ca1
nanofib
##rotic
##fection
warning
dimeric
##oric
pelvis
electroporation
asking
vn
##rupt
e4
gravity
commens
quadratic
macaques
191
δc
cryop
##oge
delirium
##quilibr
##ender
detoxification
catalyze
pest
underestimated
immersed
collagenase
##108
ori
kif
lapse
altitude
eur
fluxes
treadmill
stones
reasonably
synthetase
cdkn
##eq
dynein
relapsed
diphenyl
unint
degrading
##fected
pz
ptd
211
hcmv
topography
contaminants
60°c
##001
##umar
babies
monocyt
thread
aggrav
##glycerol
bla
217
lymphaden
spermatozoa
uncertainties
zha
mirr
ross
exceeds
uve
##gran
audi
cortices
peaked
##flex
3g
irrigation
fractionated
assimil
lexical
##oresist
ans
enum
illustrating
residing
fingers
crosstalk
cured
contributors
radioactive
aus
##ophilus
restrict
10a
cuc
biphasic
##imotor
##acers
rbp
danish
injecting
h2a
classroom
hematologic
emergent
##129
hps
##feld
neglect
combinator
varic
kenya
attenuates
δh
llc
individualized
nem
ascorbic
##gm
ontario
hnf
osteoclasts
lbp
disappearance
confusion
phages
microp
disadvantages
##box
##elic
mpo
lambda
ccl2
##itre
pufa
lvef
##2o
mats
purkin
situated
menopause
amplicons
precipitate
mercaptoethanol
inoculum
belonged
zhou
boards
purkinje
someone
tic
hsct
timp
nef
linguistic
bra
ivf
ncc
assignments
chf
finland
interruption
supposed
##obia
alleviate
told
##dt
representatives
player
213
##astric
embase
##102
gabaa
tilt
##unted
stratum
##produc
##entation
devoid
terminally
identities
##uri
anticoagulation
rifamp
reimburs
cesarean
puberty
substitute
parkin
pedig
##eria
photons
apps
unemploy
219
leishmania
20°c
arrhythmia
ribonucle
zf
permissive
2x
semicon
tcm
carolina
virulent
##β3
##uates
cardiomyocyte
##quilibrium
burk
phosphorylates
deion
anthocyan
pher
counties
davis
h2s
drastically
##oviruses
##luc
wait
##lers
coarse
apl
pharmacology
anonymous
catheters
trying
games
##ytically
standardised
organisation
weighing
turkey
aliquot
4g
prolactin
midbrain
tremor
agitation
gtpases
tma
disturbed
lipoproteins
antagonism
sensorimotor
inev
##vinyl
basin
bark
vietnam
cres
##uin
##omethyl
##ql
nah
##202
coactiv
incon
neurology
concentrate
outward
lov
shrinkage
doubling
sink
rendered
##acterium
laryngeal
suspicion
shaded
pha
authorities
##acies
pauc
##pyr
mth
confidential
##s3
whenever
lec
antiserum
##phase
##ocyanate
pbl
royal
beet
engraft
nsc
preoperatively
localizes
1960
taylor
epine
cy3
spore
pyro
metab
egcg
rmsd
nanow
ict
224
embryogenesis
advancing
disposition
cfa
l5
motions
circuitry
ticks
dyspnea
workshop
nanocompos
mre
radiolabeled
sixteen
##10a
thirteen
rash
##omyel
counterpart
unt
iptg
##bro
narrative
pc3
cobal
stents
proceeding
scratch
receipt
exceptions
secretase
##pray
cellul
cytogenetic
practitioner
vehicles
convergent
nationally
monos
lenses
##lotinib
friendly
##oga
##uximab
remn
herbiv
##opyran
udp
intriguingly
ciprofloxacin
triangles
intergenic
precondition
cones
wiley
drs
anticoagulant
transformations
immigrants
oxal
occasions
##ofen
hw
qds
grating
gus
prohib
mecp2
modulator
##esi
kol
##pfc
bony
##tructured
constituted
unambigu
650
sensitivities
aptamer
##whel
adduct
##ectomized
caspases
benzene
##odermal
##sm
stations
##ket
homologues
hpr
acp
##264
calling
epithelia
##phan
sla
##hb
evans
genet
separating
cryopres
##atil
##timulation
perk
overwhel
##atite
##zz
trifluor
pds
δδ
standardization
ache
combat
triangle
restrictive
rendering
pelleted
##azep
privacy
aed
hamster
##idene
##2−
casein
##erating
wax
taz
##transferases
lysozyme
oncogenes
cabg
evolutionarily
sax
haemorrh
monocytogenes
oxo
##esp
##umann
borte
story
##oting
deformity
mx
##idis
permeable
##cb
turns
1n
coom
unmodified
hercules
latencies
disrupts
communicate
tactile
##iax
audio
feces
endovascular
lentivirus
##abl
skewed
##enone
pneumococcal
u87
ards
begun
hereafter
coal
diethyl
intermolecular
microsoft
combinatorial
glutamic
constantly
spiritual
regimes
##idol
rejected
bortezomib
polypeptides
empower
alert
puncta
initiates
outdoor
preparing
##embly
##dg
##berry
neurocognitive
##apy
##ager
erlotinib
kpa
##ixed
##h3
ry
cbd
forearm
dickinson
ribosomes
##okinase
##uns
bees
electrophoretic
immunomodulatory
poc
uf
##cre
speeds
cdk2
depar
director
##190
residuals
climatic
ancestor
tec
405
grape
##infection
viii
##olia
cylindrical
turning
pacem
augment
##holder
ramp
##udge
ugt
1×10
polysaccharides
graz
monoc
bare
constituent
αv
implied
8c
lyophil
##uclide
readmission
endonuclease
palsy
aca
echocardiographic
##138
meant
##facial
malays
ensures
filamentous
##opharyngeal
carboxylic
clip
##idge
haart
etop
discriminant
troponin
depths
runx2
optimizing
wnv
linc
##ulary
strips
poisoning
transcriptomic
subtraction
therapist
phonological
aldehyde
speakers
nucleosomes
phosphorylate
rneasy
postpr
##obulin
ternary
proliferate
intrad
##1d
multifactor
neighbors
psycho
abolish
specify
belgium
encephalitis
terrestrial
##unting
apolipoprotein
125i
decide
hypothermia
##plantation
superimposed
nav1
cm3
medulla
##achus
underp
dysfunctional
##achi
##oxane
mcg
freshwater
##vd
specificities
navig
multidimensional
infin
90°
therapists
mah
##onge
dissip
020
##odiazep
geriatric
tidal
dlbcl
##olor
barley
judgments
polyvinyl
divisions
denatured
latino
sonicated
nip
exud
unidentified
254
psychiatr
authority
##ighter
takara
transformants
noticeable
dipl
rgd
glucan
flasks
dicer
##sy
truncation
##atized
accumulates
##level
##olla
andre
transposon
tlrs
matern
calpain
phagocytic
bnp
habitu
dag
cubic
375
vitamins
crown
cyp2c
275
aeti
vegetative
sh3
omn
##abr
nematode
vegfr
sciatic
roughness
regurg
rater
topois
considers
immunogenic
rotating
presently
occasional
quartiles
cic
hydrod
##eri
heightened
tracks
favourable
##rotomy
ethiopia
columbia
shel
febrile
endocrin
barr
tracked
##obarb
recruits
prerequisite
biore
##rr
gill
##ifiable
nations
fundus
methane
##come
tga
mmt
thousand
repository
concordant
afforded
##oracic
burd
##ecton
mangan
suitability
sdf
##eptidase
mrc
ctrl
cancerous
inflamed
##attr
declining
extremities
##mond
breeds
##atectomy
##oves
eus
calves
330
etoposide
submission
isomers
metalloproteinase
heterozygosity
##orax
deployment
##orex
classifications
moss
obstetric
primitive
exocytosis
reticul
chimpan
orthologous
loadings
terat
socially
compelling
citi
japonic
##atalytic
evenly
##uro
##idym
fcr
exciting
tcc
lymphocytic
autoradi
##ubs
invasiveness
committed
hsd
scrap
##ogle
externalizing
exo
traps
logic
heterochromatin
bidirectional
##otri
harvard
oscillatory
globin
1s
##emis
catast
failing
zeta
##ospec
linearity
unavail
h9
inequality
spending
024
breaking
incentives
metaphase
##olipids
caudate
##arth
afl
##uccess
##west
drinkers
encapsulation
pluripotency
shig
cort
##ionate
##assie
steep
metropol
ascribed
ripa
n3
oat
paralysis
p5
nocturnal
industries
##ticism
compressive
##arinic
uganda
tki
##ongru
1990s
hematoma
mindfulness
##obarbital
immortalized
truth
advisory
##gut
nonparametric
solitary
##uterine
resembling
##oms
##amphetamine
desorption
##ankton
htlv
nig
sequestration
##actors
pherom
##ylv
##bra
nationwide
imagery
desensitization
ffp
##lys
##bed
logical
denaturing
intercal
villages
deionized
##ingen
##ensen
prosthetic
qualified
δf
mate
aspar
hardware
##sr
trache
lan
##sulf
290
trophic
rage
cytosine
shp
nociceptive
unsuccess
hrms
##anus
cta
intentions
aag
2500
purely
mptp
##aya
estimator
inspired
##men
benzodiazep
payment
embedding
acidosis
antagonistic
##acaine
##brt
neurodevelopmental
fel
amphetamine
stacking
##bladder
pct
gct
##eda
taf
spm
alarm
launch
sequelae
powered
##wr
certified
aneu
##ulent
##fu
019
##joy
cav1
##ymb
jp
##3c
bioscience
tinn
ns1
##uman
incongru
mpfc
actu
epididym
##econd
vocab
cj
cleaned
bilaterally
attrition
subtracting
bl21
guiding
cowork
zhao
innervation
psp
##caemia
photoreceptors
##imeric
##hard
silicone
diaz
caco
tie
##bp2
permutation
goes
r0
peters
ps1
##aat
##ahed
energetic
fluctuation
certif
##h2po4
##adt
shortest
dipole
sh2
thigh
##155
reflective
reactor
vacuoles
recurrences
phosphatases
forec
forth
charles
1974
nonf
capsa
stirring
amylase
causality
counterstained
##berts
##amino
hyperther
nz
snare
pter
difficile
sis
fulfilled
insula
exacerbations
−4
provinces
infiltrate
capsaicin
harmonic
rotated
exacerbated
neglected
gentle
evening
sumoylation
gambling
##zens
1m
##ila
grafted
opportunistic
##ocrit
lysosome
unsaturated
ovx
##lt
heroin
tinnitus
chir
interpretations
tdt
transfers
nut
convex
ebs
ozone
mdck
##asted
israel
##anging
c8
natri
bph
pcv
consume
##oys
porosity
##iant
##bens
intersection
mary
neurof
wine
intolerance
inbred
##iline
nog
oligomeric
bcc
pc12
constip
postprandial
homocysteine
relaxed
instrumentation
transplants
229
erythemat
r3
amenable
##icially
bps
ureth
delineate
parenchymal
c9
benzo
allergens
##tert
decid
microf
virion
ascertained
##pic
teen
succinate
granulocyte
prison
mif
cdi
embolization
##zu
massachus
##activated
diurnal
aza
##ashes
snow
aperture
recognised
capturing
##ews
genotypic
##mar
##ht
preex
massachusetts
ordering
aneuploid
##edia
destroy
##thrombin
microbiological
iκbα
pumps
disequilibrium
redistribution
hydrophob
e2f
glomerul
ileum
5×10
anonym
fvc
attribution
wein
380
##light
ducts
taxon
oligodendrocytes
epinephrine
meter
tumorigenic
knowing
hypercholesterol
##astig
coulter
embolism
contradictory
retinas
coomassie
multifactorial
dz
ung
##urred
##121
caloric
impression
fluc
curved
acted
engraftment
##specific
spaced
experimentation
neuropsychiatric
vitreous
235
proteasomal
organelle
027
##251
motone
##var
ssr
corrections
hypothyroidism
framesh
solubilized
##nem
##β2
dystrophy
repaired
##omegaly
pitts
##opharmac
ultrac
undergraduate
##cope
settle
rods
visu
ears
##ussis
restraint
valves
dichotomous
##alis
descriptors
asparag
encounters
feat
##ailing
intracere
measles
##enicol
harmon
##through
cholecyst
interfacial
420
committees
ultrastructural
dsc
tocop
coordinating
stap
tocopher
gallbladder
twe
logarithmic
spa
submuc
##icc
##uy
odd
##emp
elis
##oxib
deeply
##azo
##oplatin
legend
276
spatiotemporal
spt
microbe
subsam
kinesin
straw
beats
semin
##ilden
beds
##eca
##kt
florida
nf1
opn
##ulsions
ffa
physics
herni
encephalopathy
toluene
haemoglobin
autocrine
shield
ctcs
monot
tnm
increments
lining
microstructure
kanamycin
packages
glutar
svr
coworkers
menis
mib
postmortem
384
##tives
##fv
ovari
enjoy
##utations
cetuximab
beams
##itories
##proliferative
##auer
barre
ced
expense
lrrk2
##fas
dopa
gefitinib
becton
##nand
herm
subspec
quenched
sludge
##fb
lub
##fast
registries
button
bfgf
emphasizes
exploit
retaining
layered
##eto
stalk
1973
uvb
smad3
##5y
unstimulated
spheroids
liposome
jet
ssa
##aked
vg
brachial
jurisdictional
chew
modelled
bursts
##ystall
beclin
ubiquity
else
syring
valley
s2a
palate
formally
cko
238
##118
##iaceae
rewards
stoichiometry
duplicated
catabolism
##rio
medullary
news
##plat
##x7
identifiable
##c12
hpi
deacetylase
emulsion
amputation
hans
michigan
##3d
divide
rhodamine
intrauterine
##vix
galectin
psc
buffers
overlay
brass
calcine
determinations
rounded
rick
gj
adl
##anic
doubt
h3k27me3
spong
##ipa
shaping
manganese
adversely
ignored
##chi
ours
arose
untranslated
unsuccessful
glun
savings
365
htr
radiology
ipf
isotropic
peroxisome
swi
zhu
polyd
##balanced
stern
no2
##board
##crt
withdrawn
kg−1
h2b
ale
##187
physiol
v4
compiled
wisc
confirmatory
spiked
inferences
##nish
workload
##indole
calcineurin
accidents
enorm
reared
##elson
barrel
hysterectomy
ptb
ingu
normalize
##inesis
##vern
lidocaine
categorization
dsp
##base
arachidonic
##113
caring
##olus
spleens
nhej
fluorophore
declared
superscript
aac
donkey
##ifera
##inflammation
marketing
predominance
detached
colorimetric
nomencl
pace
arbor
doll
##adow
mfi
tuber
hydroxide
appreciated
##opodia
233
morphologic
pour
copyr
##lyc
poland
pyridine
nonsense
##ellate
borders
submit
claudin
il6
intratum
consultant
cxcl12
023
subsp
##uine
upward
constipation
diary
lis
##obar
##ensors
dams
γδ
advised
email
##acrylate
generator
emitted
buccal
##omavirus
ceramic
##itated
priorities
vire
seaw
226
dor
##asion
##qi
acidification
##upt
compartmental
##ugu
empathy
cdk4
subdivid
acquiring
##iser
228
siem
##tier
##ystic
metabolized
command
##uents
anthrac
stabilizes
noncoding
multiplicity
solute
adoptive
apple
morphologies
##body
##actions
##omplex
brush
nematodes
homogenate
topo
masc
pertussis
bangl
##folded
chemoattr
c7
warrant
controller
elasticity
computationally
anaemia
incorporates
bred
generalizability
phthal
advancement
tape
sv40
aggress
##co2
cili
ebiosci
argon
chimera
anionic
##ophenyl
miner
cavities
purine
construed
locked
vpa
moments
possessing
script
bangladesh
##vable
##acheal
##encer
ttp
migrants
probiotic
metabolomics
ssp
loh
subdom
generalization
anxious
classifiers
mammography
natal
##ar1
##115
##ometers
dynamically
##insically
ownership
descent
##nic
folic
hetero
rfs
fragile
iaa
demanding
trough
utero
corning
##ophilia
h2ax
morbidities
##idyl
serially
oryz
returning
multilevel
controversy
##oscope
puromycin
234
kiss
##icit
plastid
imputed
##urus
sponge
relatedness
naming
hcs
obstetr
11c
parsim
fan
counselling
synergistically
victor
leis
##rals
##x5
endoph
diarrho
rectum
stick
accumbens
##xl
##≤0
icr
catheterization
washout
##bf
sentinel
cruzi
huvec
≥2
syncy
saving
multimodal
##enoic
vero
hev
bari
butyrate
aat
iib
pgr
227
haw
##tigraphy
mandible
fove
petri
ud
coagul
2r
##af1
consultations
##matis
anorex
##iazole
schedules
syll
##omyelitis
##ifl
##oul
his6
sox9
##anous
myoblasts
inguinal
milieu
copolymer
##gap
##eno
austria
ridge
evidences
thawed
supervis
pmsf
##arges
trkb
fasted
##ainees
tdcs
##elastic
constriction
lil
##ulic
dihyd
culturally
concomitantly
##114
circulatory
greenhouse
knocked
##aut
choroidal
026
arrangements
opens
hypermethylation
overlaps
frameworks
ischaemic
##uda
##alges
min−1
agg
beverages
densitometry
metaph
scfv
msh
p7
alcoholism
societies
##othre
street
##n5
intravascular
##yric
imrt
##gp
pesticide
tbp
##isy
pupil
penetrating
blindness
η2
sutures
##oxidase
##rected
simplex
##amphenicol
clav
opac
exhaustion
fkbp
chk1
lyc
2n
##fi
cant
immunostained
universities
dependently
assesses
##oglycans
kappab
##zhou
reminis
ats
amaz
##fin
0005
css
rehydr
tfa
axi
##xs
##ivirus
ttc
255
##rey
##opolym
##iella
239
ideation
volunteer
convinc
pcd
gga
thc
##ocene
propagated
inexp
yi
skilled
x1
incis
biolabs
##fm
remodelling
smad2
paucity
phall
srp
tcp
baf
vcam
##124
##etti
capacitance
perivascular
releases
distrib
linkages
5g
telomeric
##incter
landmarks
glc
ionizing
##ullary
de3
tmd
centrosome
adenocarcinomas
tender
##ulins
gaining
escc
serous
##bg
witness
predictable
fluency
chips
medically
clay
αs
##icked
syph
##ositis
##ocic
ordinary
##oreal
subcloned
perfectly
glur
022
rubber
298
glutaraldehyde
indexed
benefici
inr
cenp
screws
##etit
pdc
ensured
parv
sak
##uminescent
detects
inhabit
clop
stat5
asympt
##cr1
oxy
10th
bee
transd
captures
incentive
hollow
budget
governing
##aba
lei
hnrnp
mans
cdk1
std
##iters
245
assistant
interrog
##actone
asthmatic
slowing
##ivacaine
s1b
##uran
sorb
contiguous
decompression
##117
nscs
chimeras
neighborhoods
nanotubes
aided
hardly
h3k4me3
corroborated
oblique
dnmt
plantar
seawater
##kh
diversification
afferents
vocabulary
nrs
##omon
##hae
saudi
lich
elite
justice
bilingual
##traumatic
##aten
copyright
neovascularization
intrinsically
pertin
instantaneous
##adap
internalizing
leisure
glycosyl
##works
google
##dam
conidia
carboplatin
civil
##afluor
listening
nothing
rnf
pittsburgh
##arians
tmz
erβ
##137
trigem
##osoma
trimer
transitional
##gram
fees
510
cim
##150
tanz
corner
512
pere
reflectance
leaflet
236
electrospray
bruce
siemens
nigra
##adone
##oter
myogenic
seb
imperative
fuj
abnorm
insult
p75
no3
fischer
α3
nord
masking
correlating
##5c
avers
##ymethyl
locate
##ouracil
multiplied
##jiang
chloramphenicol
##vention
mildly
h5n1
##orbol
downward
##ocks
novelty
##kel
fluorescently
abrupt
multifunctional
##ptosis
walker
sulfoxide
unwanted
southeast
printing
overlo
chris
lister
uroth
waveforms
##±3
disaster
arguments
primord
brady
defl
melanomas
alum
discussing
refuge
mars
hrt
mms
##ronate
bun
cylinder
##nar
##oviral
##plan
##minth
mll
brist
cdr
periplasm
positional
familiarity
restoring
pho
wan
francisco
##gel
terminology
congestive
##hepatic
qtls
##orescence
phosphodies
flanked
epp
apcs
unlabelled
##relation
pione
mont
lying
94°c
##prop
##ogrel
garc
mers
regurgitation
behave
cau
dermis
seropositive
454
outpatients
colloidal
capsules
dnas
confident
bach
nedd
jug
polyphenols
spondyl
028
emd
associative
territory
##gian
##ulators
cus
neurotransmission
underlined
##otoxins
deployed
stopping
##bon
##ika
hydrophobicity
asb
indispens
##otecan
sustainability
pleiotropic
myrist
exosome
vivax
ore
perine
nicotinic
obstacles
##eliac
duplicates
##acia
lamell
##ocept
discordant
ferric
aunps
digiti
caf
additi
intimate
inqu
demethylation
##oidosis
dext
##ac1
seemingly
pertaining
azide
µmol
agglutin
pns
232
piglets
indels
convey
antin
##cttt
bmscs
competit
mam
exagger
awake
rhythmic
glomeruli
nomenclature
trainees
sterilized
deer
pps
nil
##ecd
s100a
##drs
##western
discriminating
##inous
ara
perturbed
interrupted
##predict
methadone
topoisomerase
depict
hedge
apoa
syng
propyl
friction
parenteral
senescent
misfolded
ηp2
dwi
amy
court
loxp
vacuole
ksh
fentanyl
##uated
cci
biosensor
metropolitan
##6c
magnetization
muscarinic
atra
iac
inexpensive
slip
disciplines
histopathologic
neurol
inefficient
gay
spend
astr
antim
legislation
##rid
rearing
prolongation
##idomide
dwelling
##anges
thalass
subdivided
pharyngeal
intronic
chemoradi
##odex
##lational
##rig
ppt
##172
vhl
opa
persists
enterobacter
prb
adhered
aas
hamm
##idation
ada
stratag
unhealth
##h4
##acker
intras
guarantee
permeation
inflation
##eratin
##pren
cyste
autophosphor
patency
akt1
brachy
ucl
gases
methamphetamine
morris
rxr
radioimmun
compressed
gor
##amides
6f
completeness
pea
executed
520
sprou
trpm
yolk
##ches
appeal
otu
cnvs
##alg
reminiscent
biorad
seat
##edicine
didn
calcit
monoph
##ithromycin
holo
safer
prednisone
indometh
mobil
sterol
urethral
symmetrical
smoker
resolving
societal
##pr1
sulphate
ireland
tier
mega
potentiated
influential
inequalities
msec
##arf
centrally
versatile
substanti
adrenocept
ulcerative
speciation
ell
bronchi
circr
ampar
natriuretic
dynamical
sialic
identifier
##apsing
referrals
##beta
verm
cheng
rog
license
clopid
##ocycl
##yphenyl
callosum
##titer
ppd
closing
relational
cervix
hydrodynamic
stratagene
rotavirus
emphys
glm
mold
micropartic
eighteen
vial
indomethacin
anions
pkr
sars
##quinone
cgrp
collapsed
estrogens
rigidity
buds
clopidogrel
##asin
pubertal
##ston
msa
adopting
cem
operators
condensed
sct
##rep
hinge
disclosed
80°c
ui
−5
243
##su
vz
happen
gk
stainless
bloodstream
swallowing
pik3ca
iteration
##pa1
isopropyl
garcia
harbour
nta
vertex
arrowhead
pdi
asynchron
hbe
prs
preprocess
flaps
##therapy
chemotactic
predefined
vmax
buried
ntr
communications
defer
strata
pparα
infest
##nl
swabs
##inositi
photoper
postd
237
ek
elementary
##otyping
##oderma
macaque
##ontech
criminal
##the
doping
stric
biocompatibility
clara
tlr9
pigmentation
hyperalges
spars
##hog
converge
hts
atrium
dosages
eis
##oplankton
simpler
490
ascorbate
pertinent
##drug
sphincter
genotoxic
duplications
chat
scap
deconv
clontech
exponentially
nonm
prrs
dms
send
taxonomy
kcat
restricting
##owa
##agag
tbst
responds
violent
anomalous
##pert
nq
##rosine
expenditures
neuroinflammation
μs
xb
cyclop
rhodopsin
oscc
succe
snaps
limbic
craving
fap
xy
diagrams
readout
compatibility
##udine
crime
melt
stressor
##oidin
arid
tall
replicative
ambion
f12
nestin
pathologists
flatten
259
ameliorate
##etent
unal
##ivir
sting
swab
o3
isometric
±0
ferm
homing
constructing
mph
##amol
macromolecules
##equencing
7e
##111
retraction
outlier
##flag
syphilis
immunocomprom
eta
boiled
trav
rhabd
activations
radiograph
quater
economy
vinyl
gcc
flavonoid
marsh
dmd
knees
predator
##x6
aromatase
exposing
1972
vagal
gum
api
xho
##aser
kyoto
bactericidal
##anat
pyroph
hept
##opically
replicating
amniotic
unhealthy
cadaver
##tite
proceeded
##enedi
vasopressin
bend
write
centi
iw
saved
multip
photographed
δt
unpredict
cmc
##aco
##ximide
dihydroxy
ghana
happens
itch
homeless
intercourse
dysphagia
c16
spc
inherently
endometrium
nail
trx
imid
somatostatin
cholera
party
portable
disassembly
##orphic
corrosion
bure
victimization
flora
oven
uniprot
tryptic
carcinogenic
−20°c
pahs
roberts
cd56
nanostructures
##ovas
laparotomy
1980s
escalation
exported
cyp3a4
robustly
pp1
gleason
syt
ids
bace
cooh
##hem
mgso4
unco
igh
salic
technically
hispanics
proceeds
incidences
amines
##olinium
floral
artemis
zr
approaching
needles
cytomegal
trigeminal
hydrolase
decoding
ebioscience
hemagglutin
factorial
elucidation
sclc
##endorf
abnormally
##ypti
coatings
2s
##itamin
repeatability
t6
conceivable
subl
happy
interferes
##ometrically
##omogene
##etrically
trnas
dmn
anticipate
cobalt
justified
nanomaterials
tears
burns
experimenter
bottlen
campaigns
implicate
floating
##ello
prices
dithiothre
ccl4
##otherapies
bruc
lessons
arabin
caveolin
orthopedic
facts
elmer
ethidium
mortem
questioned
eif4e
duty
s11
ch2cl2
framing
conceptualization
rfl
discharges
counteract
##alo
digest
fulfill
euro
eigenval
haploid
chloroquine
antiplat
##noid
anchoring
transparency
speak
##clusive
microvess
remind
##coming
at1
htert
cytokinesis
anaphase
##oal
aside
oxali
##factors
##eland
cytokeratin
ingested
spirom
serr
stacks
shi
dithiothreitol
##unctional
norwe
philos
parenthes
appointment
znf
##ochlor
##orhabd
##ylon
intox
##600e
melanin
conductive
depress
practic
orthopa
##hop
interl
bifurcation
thinning
progresses
sy5y
percentiles
inactivating
cα
biop
cannula
epoxy
laryng
defence
etoac
##imab
fibril
unmet
advent
##illar
doubled
pacemaker
carboxylate
medias
electromagnetic
lpl
illicit
isotopic
butter
##atech
eyel
ril
##zes
moll
parentheses
reliance
##bm
247
pooling
oxaliplatin
ubiquitinated
##represented
arte
christ
infecting
laterally
derivation
depicting
tian
antisera
infective
##ofil
##508
predisposing
##ogon
polymerases
enormous
##ellin
540
funnel
mannitol
##orously
extensions
elucidating
neurotoxic
polyaden
administering
bubble
extrusion
satur
trou
warrants
##−3
570
##ctgg
analysing
hedgehog
##ap2
polyst
duodenum
##assays
bmc
favoring
##erae
##473
minimization
avp
speaker
reasoned
ldlr
kshv
guardi
##enoid
eic
##plot
anomaly
caa
isothi
244
unaltered
##absorption
hypoc
immigrant
halluc
ptr
smoothing
##me2
308
forsk
brun
intoxication
snapsh
jointly
9b
licensed
producers
##incial
p24
##abc
profit
globular
ferro
streams
sip
α5
storm
stains
##159
sao
cd24
mesoderm
sgc
mismatches
locality
deliveries
hydroxyp
checking
gun
phosphoinositi
transients
revolution
autore
##enda
diarrhoea
posttraumatic
yb
rafts
cyclosporine
311
town
narrowing
iat
mbl
ventricles
gamet
dece
bdi
neurotransmitters
saccade
harris
symptomatology
##actants
indispensable
##dn
##itoneum
fov
lactose
jolla
##480
##onergic
enters
wireless
unavailable
flour
aversive
mdm
##reek
psm
hut
manipulate
acinar
goodness
syk
supra
thrombotic
ccn
reinforcing
correcting
pulled
refine
##being
wg
sleeping
##anolol
immunologic
mendel
interconnected
##erica
##ophyl
adapter
xylose
bats
biole
##ultured
325
cpb
zn2
##139
bottle
comfortable
##ecu
intersp
bariatric
ns3
minerals
cd2
pressing
draining
ranks
tremend
aβ1
##itating
##cv
telem
chlamydia
coexpression
epha
faith
citation
##amate
##mes
##pora
cpm
ubc
adipogenesis
overdose
igg4
##inol
creative
##rii
bite
proposes
richard
hemispheres
gca
god
minne
295
248
δg
genis
nodular
fossil
awa
unexplained
cytomegalovirus
endothelin
wellbeing
neurogenic
dialyzed
##een
retrotrans
##oacetic
carnitine
relying
workforce
diamin
attraction
obstacle
##kinin
repetitions
impor
p110
neuroprotection
cardio
bib
immunocytochemistry
spur
##amethyl
immunocompromised
sulfide
kor
attempting
tack
p6
lipophilic
246
husband
introduces
cd68
mog
α7
maltreatment
##imal
roth
motile
##cl1
##oking
jag
repressive
fumig
clostridium
530
renilla
rx
appraisal
preh
594
dnmt1
cosmetic
normot
accomplish
ventilator
bacteremia
vsmcs
morphometric
##isch
camer
mechanistically
∼1
rectangular
shelf
superiority
mao
rk
psychophys
satisfy
psychotherapy
comprehensively
##oning
radiologists
choroid
affairs
##μl
homodimer
norwegian
mediastinal
##onsin
##etra
gq
##iatal
tetrahydro
pi3
blunted
eventual
minneapolis
maxima
imt
mmc
cranio
sigmoid
##iculus
##aterial
radiography
##3t3
nahco3
cholest
myotubes
370
eif2α
muc1
magnitudes
accessing
249
anaphyl
metabolically
##iximab
dendrite
quartz
penetrate
##ch2
junctional
pra
publisher
substantia
microbiology
residency
door
singular
clc
firefly
kdm
##eximide
##stat
biotic
infiltrated
##apore
suz
destructive
##optera
posttranslational
cultivar
p≤0
##agraph
##ington
##146
lw
cleave
##167
eosinophilic
##ront
invading
##eastern
##state
##oca
tut
centrifuge
ags
extravas
285
machines
bean
interdisciplinary
spotted
##oxins
poster
cyclooxygenase
instar
mtr
cd38
cohesion
predators
##uki
densely
cycloheximide
##uronic
unified
gonadal
steadily
carcass
responder
rud
objectively
vldl
amplifier
arsen
##erver
serotonergic
groundwater
adamts
##acylglycerol
ryan
##uminal
rhinitis
asians
delineated
s3a
dinucleotide
##orphine
batches
##opeptide
orthotopic
1971
aegypti
cyc
029
nanodrop
##methyl
##ocalization
hbss
pav
r5
iner
inte
hydroxylation
g12
reimbursement
spreads
distinctly
##342
rer
setae
1950
referenced
##cts
jia
##glomer
putamen
nkt
pla2
uncorrected
hpv16
disagree
caucasians
suspect
hig
##amilies
carbap
##inesterase
ultracentr
substituents
extrap
lights
antiplatelet
dissatis
founder
mush
desat
fluorouracil
dies
discusses
##260
cnts
##apr
resonances
mics
capita
cofactors
monophosphate
todd
compress
recombinase
chrys
governed
expose
trachea
sga
a1c
inhomogene
tkis
sickness
interphase
evaporated
##cephalus
contraception
##ceptive
hyperlipidemia
##amoto
prod
ito
##osylation
pean
tps
consulting
wisconsin
listeners
ctcf
bromo
nicotinamide
burnout
propranolol
efs
m4
picked
polystyrene
##ivial
p70
647
hematocrit
favors
iav
##esearch
tolerate
melanocytes
numerically
##ypsin
lns
parox
315
sickle
##ached
##hm
secretions
intranasal
tym
converts
ophthalmic
odont
g−1
mycobacterial
loose
tlr3
030
yan
##gend
##vised
dispensable
tocopherol
scavenger
orr
##aban
accelerating
colonized
grids
pna
hindiii
##bv
##oneg
immunol
##angiogenic
a20
catalytically
antiproliferative
outlet
nsf
claimed
supplies
traction
plp
p2y
forskolin
extant
minnes
sunitinib
wp
crl
renders
genders
##otinib
myx
thermof
synchrony
c2c12
##tebral
effer
##atility
keto
uti
265
antipsychotics
##igenes
phorbol
mvpa
hog
nhanes
##in1
cole
e2f1
zol
probiotics
facilitators
##ineral
##xc
vad
rgc
brings
burdens
cd36
pakistan
##athic
263
ovulation
vibrational
carotene
prodrug
medians
archaea
arv
mta
ttr
##tinin
wards
correspondingly
rabies
io
conferring
clues
##bell
tha
0°
hemolytic
goats
strengthened
overlaid
bethes
##135
shaft
##ioma
heterodimers
##olase
hyperalgesia
nachr
##berger
handled
switches
##174
bigger
##α1
temperate
reca
styles
##yzer
cooking
cx3
entrance
angioplasty
##dl
##agtt
compulsive
≥3
prokaryotic
upright
james
vasculitis
auxiliary
##idate
genistein
adjuv
geometries
##odeox
simvastatin
traced
stein
hart
whee
xhoi
singapore
bethesda
kinetochore
##oded
cryptic
sharply
pheromone
smears
encompasses
minnesota
maneu
rcs
helminth
wildlife
##igenic
herd
##fect
insecticide
257
##168
speck
vacuolar
microcirc
echin
##azolam
253
infrequent
##orrhea
threats
slowed
thior
##igo
fellow
2−
reconstruct
twitch
##165
##umps
##standing
lutein
##adays
colocalized
sinusoidal
preexisting
##ospital
cse
bottleneck
vertebrae
vegfr2
divalent
pyrimidine
nowadays
sew
orphan
##ocarcinoma
241
upregulate
aesth
heights
accelerometer
fingerpr
##etary
pnp
##osc
assurance
modestly
crh
ttx
tanzania
yearly
autophagosome
multifocal
##unctive
##ims
hampered
paris
detectors
hydrocarbon
facet
cardiology
valued
unpre
calorie
potently
retains
sms
sons
251
xenob
chym
lyophilized
subth
alloc
grows
strokes
reporters
electroencephal
incar
punctate
granted
reservoirs
asser
301
suppressors
hydrolyzed
ventilated
stn
coils
realize
turk
##oxone
emer
##biochem
indones
gadolinium
girl
##nh
##506
242
arthrop
editorial
toc
practically
phylum
emphysema
hydrolys
pva
represses
inconclusive
##adel
rolling
prun
autocor
admix
anapl
##sem
dko
police
seedling
proband
klf4
envision
isogenic
gonadotropin
strugg
fundament
deactivation
chances
sustaining
d5
277
##g3
288
##tional
wl
serocon
ephrin
biolegend
logarithm
malaysia
commensal
heur
vials
bifid
sgrna
##uer
1p
##timulatory
noisy
wgs
##ovol
demethyl
chur
agrees
pgf
npcs
extracting
nonsignificant
wellcome
p14
wald
vasodilation
modifiable
lae
021
dangerous
ree
zm
learners
mev
##resh
bisulf
pip2
pedicle
##fh
hyperinsulin
wats
provincial
intuitive
plk1
itc
##anthin
repeating
mdscs
hallmarks
implicating
recreational
innerv
b4
035
keratinocyte
underestimate
alcohols
biob
jar
microsomes
pmt
caen
0002
ggg
oroph
ffpe
##kr
##g4
immunolab
inspiratory
rotor
##tica
phalloidin
agn
##vular
##hips
print
##184
cour
nanoscale
activin
heterosexual
concert
appreciable
tacrolimus
##cross
##itably
pcmv
ordinal
billerica
forens
glandular
elicits
anorexia
artificially
hyphae
nanor
spermatogenesis
macromolecular
cpc
spastic
sps
fasl
panic
schmid
orthodontic
fibrom
##204
exchanged
wearing
qm
pph
chemoresist
wasp
##ozoites
##omatic
esbl
plasmon
citations
intral
undesirable
chapter
##nandez
##fluorescence
mg132
boiling
vasoconstriction
ipl
triad
cch
predation
frameshift
trimethyl
resides
##pon
pleth
ubiquitously
dba
anisotropic
##roline
ribo
tfh
sulcus
##irs
##antes
centred
analgesics
jin
seventh
startle
273
agnps
brightness
##imetic
##phosphorylated
bioinformatic
thompson
mbs
lav
ketone
magenta
misclassification
agc
sgs
##tins
cpe
cd27
valine
beef
jr
juxt
browser
##aware
removes
immunoblots
maybe
##pole
unequal
##cnts
impulse
cyanobacteria
##oprost
dichro
##artis
##osperm
transferring
mushroom
hms
baumann
calbiochem
h12
neuropeptide
occupy
dvt
u2os
fertile
##adium
reoper
ptdins
fps
occurrences
adh
transfect
quaternary
omp
dls
hcm
macroc
cannabinoid
naloxone
##terdam
278
esp
tol
returns
pfizer
zw
pdgfr
##omically
confidentiality
photoperiod
endorsed
tct
##cls
hematopoiesis
incidental
pta
##baum
hyperthermia
nia
kon
hdacs
blm
formats
midgut
##f1a
##adec
karyotype
carib
##ucher
preferable
cdk5
bart
actors
metapl
410
transgenes
##arma
##ustion
aliph
diode
acetab
anoph
##omethane
fault
approximated
##imolar
302
distraction
##estrogen
mutagenic
cmax
252
thro
2p
##007
tace
##capes
autophagosomes
chx
penns
oxim
dropout
##iler
orchestr
bilayers
kf
longitudinally
yp
eo
het
##ells
anhydro
bradford
labile
employee
latitude
cytological
astrocyt
triplicates
brackets
##umn
autophosphorylation
coales
##toral
oligosaccharides
hopkins
caes
chord
bioactivity
pennsylv
anhydr
##134
smad4
fuzz
##6b
dlpfc
heparan
prednisolone
transfusions
q1
hyperv
markets
##zi
mete
balf
##annon
wedge
penetrance
rgcs
##igenin
epstein
##ouns
ninete
##js
440
oak
##154
erythematosus
overwhelming
palmitate
5x
shaker
uncomplicated
coenzyme
lkb1
germinal
hardy
eradic
c3h
asymptotic
##uez
unra
nonr
contours
emphasizing
pragm
msp
consecu
etching
h19
xps
capped
pmma
depolymer
annealed
gavage
valencia
spiro
##acea
##004
ntd
androgens
unravel
hdac1
triangular
damages
runx1
ameliorated
e14
preconditioning
breakthrough
deregulation
stanford
99mtc
relay
tia
philosoph
deceased
shall
thermofisher
r6
zoon
stance
modal
novartis
thematic
pc1
cholerae
habituation
losing
neurites
empl
infiltrates
##isters
catabolic
bbs
osteotomy
nnos
##meas
##argin
gingivalis
granulosa
680
denom
##488
##inone
dile
##omyosin
unresolved
diabetics
microch
##nels
##orhabditis
kaw
##chen
microsomal
counsel
##esting
tst
p63
malformation
##vertebral
uveitis
##375
nasopharyngeal
paragraph
granulocytes
##ien
##opreval
vow
benj
censored
ppp
watson
incarcer
durable
##onald
citizens
##al1
enthal
patterned
nanocr
crosslinked
mig
kinematic
##protein
indol
triage
##uspid
##iagn
pombe
stemi
##cycl
##icated
inaccurate
##operoxidase
degran
complexed
fluoxetine
##attt
##opod
misuse
underway
compliant
excreted
incongruent
267
hoch
seropreval
258
pericardial
##ogenin
epidemics
enforce
##phere
revising
hazardous
torsion
m−2
brit
translocated
268
qualities
incoming
drb1
algal
##with
immunofluorescent
epsilon
034
shoots
ecmo
wer
gist
##vert
timep
##inus
##onto
ghz
gras
bland
icg
fossa
##ollen
##pervised
sns
parap
##ilance
acetyltransferase
279
ssb
##ushed
##thing
hardness
nephrectomy
raft
aliphatic
biomaterials
exemplified
hepc
bisulfite
shen
##cii
cgg
centromere
##nov
ctg
312
ch4
rela
inhabitants
##152
##ded
##ador
##pots
266
mayo
discipline
oldest
robert
negoti
arith
tagging
inpatients
illumin
ship
cd86
devast
proteobacteria
##idino
astrocytic
##orov
readiness
permeabilization
lq
gerd
enrolment
u6
chondrocyte
##atgg
barely
equine
snf
farming
symbion
prostatectomy
##log
305
neighbourhood
intratumoral
tpr
boc
hindlim
##idus
retroper
helicobacter
quantitated
eluting
glucone
##gb
s2b
intravitre
vertically
carriage
1mm
##ialdehyde
consecutively
scl
ibu
gdnf
organizing
radiol
##at2
bhl
dans
mycoplasma
evol
##etta
##mh
assimilation
hydrocarbons
meyer
popl
endosome
dac
intrahepatic
hamsters
##stand
baker
polynomial
visiting
##tep
##caemic
inactivate
dsred
orthopaedic
nylon
occluded
pedigree
coma
##idad
zen
taper
maladap
5°
canopy
glut4
subreg
pennsylvania
paro
6000
2α
bait
##ompens
mcao
tethered
emerges
qrs
hindered
golden
simulating
carotenoids
viremia
outperform
thumb
##requency
optimally
s12
##937
archaeal
##ymic
isothiocyanate
##oken
metamorph
mole
balancing
subgen
club
localisation
tme
##156
dht
resum
##othorax
huh7
mang
adipogenic
##oris
yc
chs
tek
##do
alkaloids
thicker
weinberg
rflp
fid
frustr
aband
formerly
disintegr
##oylation
eliminates
fgfr
##cel
##akary
deterministic
polyubiquitin
behav
excellence
upa
hemolysis
cbct
grams
meps
ivig
tmem
parall
ift
hens
caenorhabditis
beneath
hydra
460
pectin
ligases
rosa
niches
hfs
icm
salience
decarboxyl
economically
hne
hyperint
bgl
container
haplo
translocations
specifications
038
segregated
bioch
unsupervised
immunology
isg
dextrose
rtt
cysteines
glyceraldehyde
disabled
campyl
errone
eliciting
pif
institut
merit
reportedly
##yrib
crystallography
devoted
issued
operates
##agers
oligodendrocyte
imprinted
quadric
rfa
osse
##hen
##injection
##uliar
modulatory
preventable
responsibilities
mef2
papillomavirus
fog
tka
electrocardiogram
idh1
normotensive
chondro
adjunct
hemodynamics
ecog
303
​table
yeasts
compass
suspicious
adequacy
##oprotection
anything
##oaded
##thetic
evaluates
maximally
forensic
harbored
##oxazole
ambiguity
amend
vulgar
##acag
dpph
incompletely
cape
1969
##oble
##ipher
naa
##ectic
##235
unpredictable
##chol
metron
moh
peculiar
millions
bern
fumigatus
##oub
##cast
micronutri
##thi
jejuni
nonsm
##oka
##ovar
cob
acta
craniofacial
equilibration
breadth
3x
pgp
amphoter
##002
##cnt
##illo
amphib
##ucleated
overlooked
disp
pharmacol
##ispers
biomolecules
rodrig
u0
##169
##ptive
myelination
proceedings
agt
1968
430
##entist
smartphone
##ticle
benjamin
##protected
##enna
ere
adapting
##atids
pathologist
dbd
quadruplex
##ucine
epicardial
cognitively
##iq
pgs
concuss
equity
pbp
##ophor
antidi
berlin
radion
##gma
##mand
principally
scaffolding
289
oval
demyelination
polyuns
2100
##odyn
exaggerated
capsular
##observer
beneficiaries
vglut
anp
metalloproteinases
transposition
opg
queries
assistants
additives
xylene
emptying
definitely
humanized
bulky
lbd
##prenorphine
etiologies
penile
partnerships
sarcoidosis
##electron
eclip
validating
prk
##olism
dorsolateral
##away
pax6
employs
vulgaris
hoff
##ouses
oxides
abbott
angiographic
##ums
##ropin
##mel
stenting
rumin
5°c
##158
burling
##arach
noradrenaline
hemip
myopia
knew
stigm
worry
##ogenetics
abt
caregiving
bureau
laparoscopy
pach
rifampicin
geographically
##adine
concaten
circumvent
dynamin
nkx2
resonant
2020
campylobacter
autoc
eppendorf
##umber
##308
286
epcs
anthropogenic
achieves
##arter
pockets
chemoattractant
tann
fgfr1
sang
c12
piezo
timed
cpa
lxr
drastic
interpolation
rooms
##s6
y2
exacerbate
tones
elastin
##ibus
homozygotes
seoul
modifiers
incap
utrs
##oalveolar
paa
grp78
autistic
megakary
enth
mitophagy
gramm
projecting
curing
cued
mendelian
save
##aracter
shs
coactivator
blade
dwell
manufactured
deregulated
cofil
unin
seriously
microns
hiseq
equivalence
aetiology
32p
phytochemical
etiological
hx
ctt
underweight
cyclohex
requests
##anib
##stone
moore
emr
5×
avi
seroprevalence
##optic
cream
##annab
polyunsaturated
rotations
##awi
##226
nosoc
instruct
semiconductor
vsmc
##136
effluent
fe3o4
argues
multitude
##cens
hypom
asl
acrylamide
fgf2
##oleic
electromy
##osylated
phc
momentum
bleaching
##havi
uracil
##±4
synten
antec
angeles
semiqu
solids
liposomal
taurine
jobs
##romic
##fit
faecalis
millis
disagreement
organisations
classifying
periton
municipal
##ocarb
epiph
intrathecal
284
worsened
272
pediatrics
mort
##iop
biocon
##accept
systemically
hepcidin
laid
thiored
resembled
transp
distorted
ladder
establishes
emsa
mek1
junior
microparticles
shrnas
inlet
rheumatic
bioluminescence
q2
universally
aptamers
##am1
outstanding
websites
vp1
grasp
##din
ttt
γh2
srebp
toe
cards
cohesin
leukem
stm
hyaluron
discoveries
corne
estimations
coincident
##uptake
bears
##acute
guil
atrop
pouch
histocompatibility
unim
supram
seventeen
destabilization
drawbacks
arithmetic
269
aha
rebound
newman
meters
kinematics
noncom
iowa
heritable
pigmented
##irm
cddp
##ccs
astrogl
airflow
##opropyl
cull
absorp
titrated
hypercholesterolemia
deoxych
283
herbs
vaso
avr
endos
basically
adenoviral
cpgs
narc
burning
streptomyces
equals
vena
ers
epigen
svz
researches
stellate
##onephritis
modifier
630
sponsored
coimmun
trehal
dxa
underestimation
membranous
287
calend
myod
gastroc
fuzzy
chemopre
##aska
10b
canals
##rance
pex
040
revisions
ppr
nosocomial
npv
##oliosis
epcam
installed
heterozygotes
explos
phle
lcs
##uo
a5
transvers
leiomy
##achlor
cirrhotic
345
neun
overpro
pharmacotherapy
uniformity
erythromycin
citrull
ischaemia
breakfast
##rows
optics
overcoming
celiac
pvn
##164
##ethanolamine
dct
inert
heard
sativa
sider
admixture
##cranial
##atide
##took
##profen
electrosp
evac
chase
k3
stew
crystallized
gout
cyto
bass
bup
##atoxin
reuptake
##opyranoside
oleic
laminar
alliance
560
debrid
##hinal
corroborate
±1
299
cl−
recommends
originates
facets
##ocystis
ator
perpetr
lds
molars
##131
u1
anchorage
##omicro
klebs
neutralized
rivers
nh3
pld
cga
##149
##gluc
cfse
snack
cpap
##eder
quiet
nephrot
xx
##zel
convolution
##breeding
nanot
integrates
##901
predispose
congru
bleomycin
wt1
absc
anovas
sett
continuation
##mu
bacul
##ovalent
tig
##apatite
argenti
jugular
rio
tremendous
horizon
ensembl
inclusive
##ocortex
lactamase
achievable
methicillin
##148
heatmap
##sey
aminoglyc
##osterol
##econds
posed
##apamil
##iferous
262
insults
mesop
decor
271
fishes
iol
##147
prm
antimicrobials
pept
##qs
aspartic
radiologic
pdr
##osition
##enchyme
adenylate
dad
tfi
wavelet
##angle
rockford
gates
##olymph
regress
##ostin
infinite
mpr
γh2ax
occult
epochs
trpv
xt
extensor
wires
trout
trimmed
mission
attenuating
stomatal
296
lca
aad
435
##atre
##3p
myocyte
mmp9
##mus
mastectomy
iap
##199
470
trophoblast
##onates
##opar
274
##eliness
happened
##ultural
##otyped
unpreced
vect
leukaemia
##258
##1l
drp1
r4
wis
gets
335
manipulating
organoids
threefold
penalty
undertook
buprenorphine
c1q
accult
hoxa
pym
devastating
##arring
displacements
rhamn
lett
invade
multicellular
seeing
internally
unprecedented
pnd
##iry
appointments
developmentally
5s
cotransfected
quadriceps
##andibular
##ogluc
migrant
##porated
##ulph
normalised
scripts
ahead
333
ym
inactivity
yoga
7th
pharmingen
rug
cdc25
divor
gpx
bomb
corners
install
##k9
##obium
pvp
lycop
##cys
fon
aggressiveness
282
gaa
incompatible
bont
ppg
plotting
refused
darkness
dating
agr
circumferential
032
voltages
468
zt
acsf
mse
tram
trivial
serca
urothelial
##mix
##ochemically
bringing
joined
##adher
endoderm
peru
convincing
peanut
eclipse
spill
##igand
pyth
850
spark
offl
peritonitis
##anta
##175
payments
d2o
protonated
##y2
cofilin
outre
gonz
odn
amphotericin
##ovic
##aploid
purchase
reef
proficiency
##high
wasting
toxicology
anabolic
##kit
extrapolated
amoe
##aned
customized
tif
halo
certainty
fra
uncharacter
cooperate
prr
immunor
osmol
pid
6m
##jan
ultracentrifug
dong
baumannii
##aminophen
intervening
316
suction
decipher
lipolysis
##arrhyth
##vp
ileal
propria
##tisone
##ellites
holistic
tgn
##kg
raw264
retinol
metastas
directing
probands
allen
accelerates
##ige
transmitter
discriminative
##hedral
diphosphate
podocytes
underlies
##aginal
ebna
pentobarbital
vat
milder
smd
##annel
##alact
sorption
10−5
hydrated
vibrio
pursued
keap1
##oproliferative
simplest
##hel
formulas
liquids
erythropoie
atg5
1966
tata
pdcs
nitroph
vlps
amh
elastase
autoradiography
##akis
passes
verapamil
relapses
appreciate
regenerated
underpinning
pink1
unrec
##177
ofc
intentional
cochlea
acetaminophen
probnp
apd
vif
neurobiological
tgg
mt1
bimodal
trains
gif
##issure
voltamm
##duced
##atever
g418
cava
##calc
whatever
inducers
naphth
foetal
agglomer
fna
persistently
reductive
degenerate
##ocus
##ocol
fmd
##ifferentiation
emitting
diffusivity
033
imperfect
##etom
justify
bh3
centri
erythema
potentiate
##istin
haemorrhage
cords
##osyn
dizz
clustal
dystonia
wes
morphogenetic
4t1
grazing
##roter
mesang
pbst
arena
amphiph
singleton
##205
##aminidase
bpm
negatives
−6
theorem
##amps
##151
292
wales
##142
alloys
midazolam
skov
1100
protrusions
oreg
##roz
assigning
passaged
##jing
maladaptive
313
pericytes
##ovsk
inserting
dressing
##ympathetic
inspected
kv1
adt
prevailing
pharmacist
lsd
cautious
shin
autocorrelation
alve
##entre
houses
sertoli
##avirin
lax
brook
tetramethyl
conceal
infliximab
clad
δp
biodegradable
##tronic
##born
latex
msd
accord
314
sers
phenotypically
difluor
habitual
nonsyn
hotspots
##ln
competency
##ofrequency
populated
colomb
jans
docked
##201
myofibroblasts
tls
##268
retire
sali
rtms
ema
3m
mycobacteria
xa
carers
281
390
6g
disposal
cyp2
asbest
informants
raters
##arp
endow
towns
microgram
261
densitometric
hesc
proliferator
outreach
eoc
initiator
coimmunoprec
chronological
##q2
marking
mesenchyme
344
625
##burn
uh
guo
cdh1
marc
meteor
normoxic
qa
catecholamine
phyla
confounded
##etermined
devised
univ
atorvastatin
304
##osomiasis
##tedly
anhydrous
asm
gastrocnem
smir
2×10
amazon
##trained
concentric
trin
##dehydes
myri
sequester
##rem
smn
finished
telev
ulceration
pread
##flavin
subarach
dun
dissect
undoub
archive
tendons
ssi
##opharmacology
ott
interdep
##450
kyn
25th
75th
sln
xbp1
thinner
##uters
muse
##mog
centrality
blastocyst
scoliosis
extravasation
chromium
remnant
hatching
shortage
pector
tsc2
monitors
popularity
amox
glas
phosphoinositide
cloz
rotary
equator
##elected
##vine
cartr
logis
##j1
throat
klebsiella
##ono
unequiv
functionalization
scarring
swollen
profoundly
prur
incidents
capping
bioassay
volcan
##meth
ops
antisocial
mlc
unstructured
hemangi
tsc
scenes
##iri
meso
wilk
bedside
intravitreal
moderated
##iterp
proto
isi
stories
bubbles
governance
##roterenol
1970s
raph
orai
rises
##astr
quintile
hca
mins
eyfp
999
##ox1
intraepithelial
cd80
mpp
proapoptotic
join
##bin
subspecies
nice
##holm
hescs
##analysis
youths
progressing
religion
dsa
blockage
inkt
regenerating
##itrap
fluoroquin
gord
exhaustive
aerial
##iomas
rav
clotting
evaluable
##ucker
##ctcc
toolbox
cach
interim
relieve
nkg2
##strom
ribavirin
10−4
##elioma
fundamentally
lfp
##orient
environmentally
gac
forel
mitogenic
debated
##olol
sporulation
##anesulf
##arabine
taa
gis
dio
amplifying
milten
scintillation
unigenes
ppb
spans
mong
radiofrequency
cholecystectomy
updating
##vr
transfections
xylan
submerg
dcis
ovid
oxidizing
zheng
##isen
simon
anode
##yk
heidel
disclose
asparagine
dystrophin
pragmatic
036
cyp2d
##iated
tcdd
thioredoxin
ornith
neocortex
immunoresearch
dialog
##acycl
dntp
blinding
photomicro
premenopausal
taught
##urry
mutans
queens
cpd
waals
gastrocnemius
broadening
conjunctival
tune
fuk
##nik
s4a
frog
dai
substituent
fluorophores
pyros
degranulation
##ammonium
thing
##166
repolar
nepal
movies
immunoprecipitates
e12
randomisation
visco
##303
##144
herbic
fj
v600e
##utter
overproduction
srf
##rogenesis
2m
##hic
reticular
sarcopenia
interviewer
incubations
##asa
ripening
memorial
ctgf
mbc
isoproterenol
luminance
##rm
coincided
##olis
sacrifice
urgently
##1a2
##onegative
iranian
6th
gluten
thorax
pigments
comet
297
##octoral
saccades
multiplying
ocr
communicating
deacetylation
cinnam
educators
##amili
045
elaborate
nucleolar
omnibus
sales
stim1
kup
tams
absolutely
ck2
mfs
carotenoid
##icz
##asure
citric
ido
disparate
cai
##kines
terminator
rsa
##008
∼2
##icine
bodily
preclude
rgo
subarachnoid
##iateness
smoothed
littermate
osteogenesis
breakpoints
309
hhv
adobe
smcs
##980
δs
underscore
paralleled
##itivity
s0
buffering
##aggg
##uma
shuttle
csr
gratefully
pomc
kos
pyrene
##003
thromboembolism
vign
nanofibers
externally
##orfer
visibility
irf3
ims
##atial
architectures
conclusive
tort
fpg
##ohex
3×
cyn
##ometabolic
##p5
cleaves
computations
sarcomas
phosphatidylcholine
desicc
uncoupling
defibr
ade
chile
coexistence
abundantly
curation
tertile
autoantibody
retail
##iso
dhs
punishment
dunnett
801
##oxal
biodistribution
dce
##vier
307
##uridine
8d
##188
valpro
binocular
##223
nur
fixing
##olysin
saa
##mate
ventilatory
iiia
irin
pyrrol
acrylic
##sal
operatively
ap2
staged
mln
##ennial
deposit
misdiagn
##odynia
nbd
calorimetry
sta
##terolateral
prd
scott
scarc
bace1
practiced
eros
amyloidosis
innovations
fermented
mage
34a
tgfβ1
bristol
##lm
perinuclear
cfi
motoneurons
mud
postulate
normoxia
invertebrates
listeria
ccr2
transcranial
unaware
##elmer
neoform
infan
bovis
decarboxylase
##liptin
isc
vpr
##agcc
cdh
lyase
macrol
##olae
##q11
##atsu
mys
blink
darm
shannon
arctic
indianapolis
037
kang
hj
pant
reacts
bmp4
trimeth
qtc
subdiv
calendar
destination
##omedial
ucsc
neurophysiological
baff
loud
undoubtedly
unintended
##stadt
enzymatically
##006
antinocic
soaked
1967
hemostasis
caribbean
##ophenol
##344
periodically
linearized
p19
532
ingen
−10
sri
sprouting
dasatinib
prothrombin
##009
recapitulate
erk2
hepatoma
subsid
##z1
1964
parasympathetic
cars
ctls
retrovirus
parp1
electrically
mos2
tethering
tmp
scintigraphy
insecurity
trehalose
m0
uneven
##ampling
perkinelmer
neutron
aborig
##ocalcin
enfor
hypere
affordable
317
##231
unfamili
dizziness
##apeptide
heidelberg
generalize
dollars
laying
vascularization
finnish
adjunctive
ys
rit
disconn
manufacture
ants
irinotecan
wavegu
digestib
disruptive
hyperth
unrel
practicing
appreciation
atropine
adopts
paulo
##oty
thy
impulsive
bmt
##olymers
syngene
tympan
nests
unrespons
pcbs
snake
pursuit
malond
virgin
eut
retrieve
peptidase
costa
stimulator
congestion
blotted
##f10
oxidored
quantile
spoken
mapks
leptosp
proprio
##orrhiz
manass
reflexes
trichlor
stau
324
midpoint
##290
plank
rrs
foxm1
coi
evoke
simulator
1beta
##ibur
divertic
nex
xiap
oes
##233
judge
interviewers
curated
mva
##aaa
brucei
ibuprofen
tlr7
caesarean
30°
pus
dimensionality
##porter
exploiting
tour
555
355
048
barrett
pediatr
usability
vav
avoids
##cc2
##witch
merist
biobank
oedema
aneuploidy
cvs
television
rumen
reflections
singh
citrus
##uber
accuracies
russia
beverage
gtt
lun
##olimus
##esy
hepatotoxicity
≤0
kolmog
##oglut
irritation
clearing
miltenyi
##otypical
stays
dani
##ospatial
filopodia
ptv
po2
ms2
##bw
backcross
ad5
abcg2
##aea
##inoids
bouts
belt
diat
barcode
cmt
intracerebral
avidin
flagellar
##346
seer
sleepiness
pdx
packaged
polyvinylidene
##gtgg
apa
##ystals
spindles
mine
phenylindole
subfamilies
brs
sha
geometrical
##aturity
recalled
mia
shank
p2x7
##3g
toronto
##hibition
isoc
illuminated
reacting
##roch
peptidoglycan
wonder
tnt
beta1
lesioned
grounded
ossification
lingual
crust
antiapoptotic
##gry
nsaid
568
musical
naked
vinc
dysfunctions
##omatis
checks
normalizing
altman
##imoto
##oints
lund
metazo
pegylated
kev
shc
##fg
cathode
fyn
weakened
irak
stoichiometric
306
noxious
##astigotes
cxcl10
nadp
##iensis
gastrectomy
fviii
hotspot
defenses
peter
alleviated
##brand
motors
contingency
firmic
##idinium
powers
##emann
puc
##atg
##206
thrombolysis
summation
bioge
paradoxical
dream
parotid
obscure
reposition
resten
fascia
stereotactic
##lich
##oreceptor
stimulant
gastritis
##nan
mpn
cd62
##uthen
pads
autofluorescence
malate
nymph
contrasted
traf6
aif
exceptional
wolbach
stillbirth
dilute
oesophageal
malondialdehyde
fibrillar
amplifications
intima
jejunum
294
neoformans
##rum
poles
metagenomic
485
farnes
arabia
microinjection
generalizable
spouse
appropriateness
seated
physiotherapy
huntington
antipar
fishing
lda
##proton
chb
htn
∗∗
##iabetic
submucosal
mucinous
v6
##oser
039
soleus
##c6
saturating
mack
##110
graphite
apro
mesangial
erec
ascs
##ophytes
uch
##hu
##005
339
neighbouring
widths
ubiquitylation
resol
##yletic
bacteroid
coincides
constitution
p85
##usi
phasic
rap1
##2000
vaccinia
arterioles
031
periplasmic
ons
##e3
specially
tta
headaches
wolbachia
northeast
philips
ortho
##ip3
##±5
δn
338
calories
aap
pin1
inconsistency
ifg
mgmt
nineteen
manassas
##ocele
wright
pharmacodynamic
##odextrin
enclosed
m9
unprotected
##uclidean
ingredient
b5
globulin
negativity
##207
pcm
##arche
kur
unaccept
precedes
dtpa
##icus
transaminase
##qw
##ectomies
##inae
euclidean
##fd
vienna
mirs
protrusion
##ermined
uni
tgc
retirement
shapiro
ruptured
dnmt3a
##azan
antimal
chewing
compromising
##u1
chemoresistance
sce
kolmogorov
anxi
prolapse
##oct
lymphoblastic
cystatin
autumn
unemployment
gig
hydrocephalus
##olds
##icl
taxol
yt
analogy
urgency
hexagonal
unmethylated
ccr7
780
##actt
guides
dapt
cra
restores
clozapine
2j
pfam
zap
##143
cavern
pumping
spasm
temperament
cancell
identifiers
electrophysiology
preca
transth
offline
##oven
multipot
##analyzer
complaint
2d3
##in2
childbirth
o1
chikv
marm
ille
lasers
thicknesses
flexor
asbestos
##11a
##otube
nucleophilic
stroop
castration
symbiotic
rb1
50°c
##b5
debridement
epc
cyp2d6
classically
isole
rdr
temporarily
fusarium
bronchoalveolar
gao
trachomatis
firmicutes
spun
##otyl
herds
monetary
ricketts
##239
##obase
sgl
diastere
containers
phenotyping
eia
forks
montre
stx
furn
toy
maximizing
gli1
lym
midwives
##536
ebola
misle
bottles
473
fecund
dominate
coum
pyrosequencing
lir
jaund
ogd
##inqu
isr
predetermined
spaw
distractor
kun
blend
##viewe
flame
troch
640
hcp
t5
mtd
##iden
c10
ppis
pufas
exchanges
eccentric
uncharacterized
interviewe
diamidino
colorado
pret
calcified
scotland
##ugal
locking
##aman
fwh
ipc
ogtt
numbered
1965
318
polyadenylation
mimicked
inflated
pathologically
##ibrom
replen
bras
allop
pharma
s3b
burgd
condoms
cameras
hsf1
fbx
as1
pneumon
pleasant
##acao
##agens
mra
whisker
##erto
forceps
mall
##185
##229
ypd
crystallin
penic
prostheses
pursue
525
restraints
competencies
drag
photoble
tubing
##arging
ivc
endocarditis
fluconazole
##urface
##ulinum
nanowires
len
##kine
anticipation
425
nrf
lepr
imprinting
ejac
qia
methox
bst
casual
##abetic
exos
boe
##adh
##las
indonesia
##organized
291
investigates
comt
amr
##4p
bacteriophage
resections
mannheim
10−3
brachytherapy
hmm
narrower
##access
lz
wy
##atp
syd
046
aesthetic
chloroplasts
##jd
##plots
ulnar
disruptions
bmp2
azd
weiss
carbons
phylogenetically
inval
ests
anatomically
##203
pisc
hydroxyapatite
autoreg
coverslip
pharmacologically
opaque
acn
ql
dcc
foramen
rotator
allografts
mated
microtiter
shadow
##bour
isoflav
concerted
defibrill
malawi
##tera
governments
β4
alu
acclimation
##thermal
dummy
scrutin
stacked
attract
precaution
choles
avidity
##antit
##adate
osteocalcin
impacting
##bear
franklin
##orporeal
dpf
propionate
relapsing
##uren
amber
erectile
everolimus
mite
gra
##sten
decompens
##etron
dhea
##umes
matters
cd69
10×
breakpoint
darmstadt
conspic
basophil
hdr
trus
##ahedral
harsh
1037
##artite
butanol
vend
##olide
beating
eclam
km2
kain
generous
##oposterior
biolog
hugh
biocomp
##iagnosed
b220
##ventricular
accommodation
##oco
bullying
aphasia
git
harbors
harms
hmscs
ultracentrifugation
##eryth
##lable
322
bhlh
discontinuous
ith
ovip
ginseng
affiliation
disadvantaged
overlying
pbc
10−6
##agliptin
##pr2
cleav
cia
newcom
punch
translating
luteal
##alez
vlp
glucosidase
chicks
diverged
paralogs
a6
chemos
##178
##yly
distinguishable
dentists
addictive
##as9
rnp
iri
##gow
##tiveness
maternity
##graphic
sse
topographic
swing
erm
319
halogen
polish
nss
gith
gssg
pvr
reoperation
flowjo
spectro
preprocessing
##amma
cheese
##omato
zeb1
323
##utz
o157
mart
perl
unic
##odynamically
du145
ablated
linoleic
##gression
czech
sevo
schne
##otracheal
##inois
##cht
##orferi
##opharm
placent
erb
martine
prc2
wei
map2
fxr
intraclass
viscoelastic
ureteral
phosphodiesterase
tumoral
combustion
e8
electronics
turner
dichloromethane
pyrid
lamellar
equality
##ovenous
kas
1080
bolds
territories
lepro
protonation
328
##ymbol
##etomidine
acd
accidental
aboriginal
tetrazolium
palpable
landscapes
enterica
rns
deoxycholate
launched
interpro
delineation
##195
smirnov
viscous
byst
nonp
apap
conspecific
vertices
unfamiliar
m5
##opril
##ref
apobec
##tie
opc
pasteur
anastomotic
guanosine
preincubated
nocod
hypoglycemic
##actable
tied
slo
e13
mimetic
holder
surfactants
gobl
dyads
##ovan
restenosis
undiagnosed
590
hindlimb
##phi
officers
avenues
bah
hint
instillation
##228
##rv
retroperitoneal
##opeptidase
inconsistencies
##fts
##2s
047
burgdorferi
lonza
endogenously
iacuc
##imine
cnn
sell
##olones
lope
wort
airborne
github
smi
nod2
##erts
singly
advocated
philipp
asph
delib
##andom
rass
20s
spheroid
juveniles
##ontally
mapp
##endym
itt
hq
steroidal
adams
nelson
##ersen
informatics
pyrophosphate
eclampsia
php
parat
outgroup
##idian
##anthine
porphyrin
anopheles
hyperpolarization
masks
c0
gonzalez
tak1
u937
millil
fuller
callus
expands
sdh
tos
tmt
thalassemia
coloured
##anum
albuminuria
mismatched
##etis
abstraction
exonuclease
postinfection
mdsc
crm
##tonic
enac
confron
bystander
silence
maryland
mtorc2
##itidis
##270
insecticides
haloper
expenses
micromolar
unrecogn
lmp
illinois
deoxyn
amoxicillin
carbapenem
boldsymbol
oregon
pthr
##hand
commented
atx
colch
presump
euc
sob
depolarizing
vzv
occlusal
promisc
327
fingerprint
rpt
disproportionately
lambs
arthroscopic
chc
grounds
vibrations
denervation
##uler
appendic
verbati
##198
myopathy
##aciens
powders
nuc
goblet
lgr
centroid
spurious
valvular
##immune
oro
##ometrics
bloom
gambiae
feeder
##idum
##oda
17β
tomographic
∼10
digits
kk
walled
leishmaniasis
unusually
laevis
ceiling
virological
u0126
igf1
##ye
biosensors
nocodazole
ionomycin
nras
ly6
earthqu
synch
mantle
crowding
scars
therapeutically
osteoblastic
y1
approx
tdf
##omatosis
nephritis
dichotomized
cyber
tars
##erea
oxalate
quadrupole
erythropoietin
cardiometabolic
fatality
##endoth
aldehydes
copolymers
##4c
##uster
##402
12p
##osclerosis
frap
##phia
stars
##276
##peridone
radioimmuno
nms
specialization
adrenoceptor
cephalospor
evasion
quinone
toxicological
##afe
itr
abca1
ahi
unsatis
disks
robinson
igf2
atf4
diaminobenz
inductive
hcy
haloperidol
mdx
nong
eru
##ardiac
nicu
campus
##actc
≥10
indel
##ophilin
anesthetics
so2
##oate
leon
decou
podocyte
intramural
lx
401
neuroimage
stemness
g9
virtue
cryos
gz
326
α6
mni
reactiv
hpc
ibr
dup
pollutant
dia
penicill
church
##tines
##2δ
tunable
coq
##omycetes
ribbon
cooperativity
economics
digitized
finds
osaka
mmtv
microelectro
##mine
nachrs
##163
shop
##atcc
hbeag
abbreviated
decoy
nco
oi
dhfr
photocatalytic
##imod
destroyed
angii
dnp
zoonotic
1600
icl
brd4
danvers
alkali
perioste
permitting
hco3
precon
≥5
shrimp
proteoglycans
indeterm
##rology
lopez
questionable
wong
qaly
enterobacteriaceae
lift
lpc
580
caught
macron
pegfp
paramagnetic
ital
##yness
newcommand
##foli
##xine
spirometry
##rew
immunocompetent
dall
0003
##ovi
aqp4
pkcs
anaplastic
schiff
##atars
surprise
banding
##4r
hybridoma
ild
coexpressed
overh
semiquantit
propagate
αvβ3
arrive
a0
##enson
##179
##kp
fors
duplexes
allodynia
h3n2
bore
##emoral
blasts
##amid
stretched
schmidt
oxygenated
austin
h1299
myometr
342
ppc
linkers
dentis
cun
hydraulic
##ecia
delaying
fru
wolf
##igned
homogenization
##ozin
footprint
conversation
explores
ifns
bioen
5mm
##otocin
mlh1
contracep
cyclization
dow
incorrectly
blastocysts
kam
ici
##utamide
osteoporotic
lengthening
polyt
agro
cao
v0
xbai
##eav
tpp
##elong
minorities
extrapolation
##inearity
reluct
ε4
##arine
leup
philadel
synthesizing
magnified
fuse
basket
mkk
vincr
oxygenase
rotenone
lactis
pdl
snvs
dissipation
ferre
exploitation
neurones
2k
electrolytes
genesis
authorized
##ospinal
diazep
##itc
jaundice
montreal
paramount
hospice
mlv
honor
nk1
tev
rheumatology
ancova
##phosphate
dissecting
anesthesi
anton
8000
pgl3
rosigl
glasgow
bacilli
ikkβ
p10
tpo
##quant
perovsk
electroporated
precipitates
##5α
##ulans
unple
nanjing
fwhm
glutamyl
fronti
cu2
lj
slic
7f
annulus
hemispheric
peng
##ogel
ecz
tle
##thrombotic
kumar
2i
##azepine
hepatectomy
krebs
glut1
holotype
e10
##biotic
weaknesses
monoamine
rhabdomy
331
deafness
##ups
d0
hypercal
dentistry
##µm
recombin
graduates
neuroanat
birthweight
martinez
rosiglitazone
dialys
annular
micromol
sweat
slug
choi
dura
enterococcus
##roscope
scop
nanocomposites
hash
definitively
favorably
yrs
isoleucine
##uretics
outlines
##vey
gcl
acne
1800
pb2
coincide
shortcom
ggc
neuromod
publishing
herg
shortcomings
042
philadelphia
trypsinized
stripped
nanomolar
##vitamin
##lec
cuticle
abcb1
syngeneic
336
chr2
puerto
seroconversion
defensive
049
unpleasant
##ched
argentina
lighting
##7b
contraceptives
##odin
modifies
mop
n2o
ties
subacute
simplify
serology
##romatic
cnp
proteoglycan
vincristine
##nett
bradykinin
climbing
dps
##aner
##iparous
##ante
hai
iz
acquisitions
anthocyanin
nebul
dissatisfaction
ols
hydroper
b27
lai
3t
awarded
##imentary
ellipso
guard
iodo
recalc
##olino
##197
bupivacaine
cpl
meniscus
superposition
##encephalon
authorship
texts
s1c
roh
hemic
itd
sweep
buch
##adzu
tricuspid
dpc
δδct
tempting
thermally
##ener
crab
clonogenic
##hpo4
##cttc
fe2
filler
hbc
rantes
unambiguously
hypoplasia
rds
proactive
diuretics
seldom
unexplored
ftd
meq
isomerase
phyc
phyto
##ucleotides
contam
healed
##br3
##trex
streptoz
rmse
leprosy
shuff
rnfl
##otho
deconvolution
enteral
retinoblastoma
whiskers
adventi
dism
332
celec
spinning
fee
hsqc
##ipe
337
chemiluminescent
miscar
oscillator
utilisation
gdf
consulted
aspirated
ddd
##kinase
pga
spar
saha
isoprop
##lear
rta
avenue
coordinator
obligate
obsessive
nph
reserved
huc
pc2
aec
puma
321
##189
sevoflurane
ifnα
##osyltransferase
anteroposterior
##elective
##162
exogenously
empowerment
anterogr
permanently
##rick
explant
##nick
emuls
neuroticism
##hire
thromboembolic
uplc
fusiform
sanitation
373
515
silva
shark
##cha
umb
eco
chromatograms
euthanasia
python
oxphos
shimadzu
orexin
extraord
discounting
connexin
##ilia
oncop
hexamer
table1
adjuvants
celecoxib
##v6
lectins
tetanus
seph
suppose
##oons
overestimated
##trum
campbell
jord
partitioned
lowers
gp41
eyelid
##space
acculturation
adri
uncon
nile
cld
##conduc
##iano
confinement
rodriguez
tendencies
g6pd
glo
hysteresis
insets
archives
45°
μm2
dyslex
ctp
grna
##vt
hif1α
phs
rsp
acanth
numb
2012a
impairing
pmns
bioreactor
##cz
##atia
##zees
grained
eruption
##adin
invariance
lars
##emes
micelle
chimpanzees
n0
consented
localised
macs
scientist
anteced
53bp1
ocul
cher
##ylyl
basel
20th
prostaglandins
granuloma
341
omics
impede
stricture
gluconeogenesis
organize
##urition
obt
##umenting
##arone
nonhuman
mdr1
misleading
hacat
trpa1
##aprote
lck
##issible
buffalo
3r
slaughter
hourly
shigella
rin
lia
schistosomiasis
demarc
accred
dme
subsample
343
##itative
dma
##aluable
arh
discriminatory
contingent
deproton
flp
summarised
miy
roads
herpesvirus
arbitrarily
##p1b
dichroism
##entanil
##tech
##oors
329
pae
##opeptides
invaded
##chip
##inski
bounded
chlorine
gadd
titles
impressive
sine
ohda
tech
doctoral
##256
formate
##ondral
##ospecific
eqtl
microbub
isoelectric
equimolar
happiness
##yo
doublet
sectioning
omit
##imited
polych
##phones
asynchronous
##j2
##echnology
rls
q3
bug
sche
rq
realization
puzz
steering
acetabular
m−1
isolating
##antine
hippo
1007
##176
obstetrics
2013a
##veness
##van
##oading
omission
rbd
p8
##acyt
foli
fibros
specialties
il10
engulf
entor
georgia
centromeric
gos
##case
tracers
ura3
muscul
fecundity
larva
talking
sema
385
chromophore
sra
tβ
postdoctoral
catastroph
documenting
1ra
##hom
2011a
hypn
fores
lfa
sunny
chelating
7h
breakage
dmr
##phy
##havioral
hochberg
##oxan
##erus
##azin
##uf
crpc
mss
pages
##iaa
660
##enstein
skim
anticonv
fight
multiplication
elegant
##atally
##×g
hav
biochemically
healthier
precede
##igration
pharmacies
deciding
bags
kall
petrole
ecr
csd
lpr
ron
harness
matth
antarc
nifed
diaminobenzidine
consci
igg2a
##roscopically
tubul
heavier
directionality
pause
glycation
cuts
saint
discriminated
delinqu
producer
benjamini
radiologist
asi
δψ
cme
immunophen
620
##acillin
043
##ista
##urities
opl
dendro
argu
reb
neutralize
aprotinin
ipil
t1dm
≥0
meditation
overestimation
examiner
##288
rewarding
gβ
decel
submerged
nr1
adcc
tenderness
##uu
maltose
rooted
presumptive
##aglu
stature
378
quarters
governmental
mthfr
deuterium
myers
##acetyl
endeav
lcmv
##ulence
##rell
cd40l
frt
##ellosis
##ries
dosed
catecholamines
t32
gsea
##opian
##lofen
camb
centro
asexual
collim
proposition
uw
timescale
##ipy
egypt
biocompatible
##ancre
revert
erythro
elispot
##gun
egl
ttg
purp
atrophic
dormancy
lymphadenopathy
gulf
compositional
t001
chori
contaminant
##othermic
prf
aip
##trated
##pta
mito
pulsatile
heuristic
foxo3a
contacting
paxillin
arabinose
cma
glasses
nifedipine
rosen
1table
patellar
tapping
##183
summing
tropism
mof
leupeptin
hughes
xc
victoria
thickened
glycosamin
phagocytes
lactating
neuropathological
mesothelioma
505
interviewing
george
png
pparg
acros
ccm
044
acetal
uncons
palmitoyl
720
metaplasia
ccrcc
multifacet
igt
inevitable
l6
361
phq
p40
imager
petroleum
##182
lcr
russian
dca
persisting
piezoelectric
##mac
ovalbumin
sw480
concave
ht29
irrig
lef
synonym
gym
boh
pxr
trn
dii
##aryl
##lock
multifaceted
intractable
constituting
##olem
psg
races
##lines
colchicine
412
inbreeding
jul
sold
shah
ebpβ
leukotri
nep
repressing
federation
immigration
mitf
catchment
stark
localities
m6
rectus
thai
accreditation
coculture
xanthine
##imid
−7
scholarship
##arietal
lifelong
2009a
critic
permutations
debil
parties
cay
biggest
δct
##iba
facile
msns
theor
shells
##ygluc
diazepam
ted
unity
preincubation
c20
revis
##epile
friedman
mansoni
centrifugal
bayer
rectif
freund
toxoplasma
inflow
agrob
phill
comparator
367
aedes
357
1038
duke
reject
##ocell
uridine
myriad
ipilimumab
##inately
fimbr
##otrypsin
##romed
##athyroidism
za
sphingosine
041
kod
regularization
bci
rear
bona
underscores
scha
fmr1
ccp
paran
framingham
flowing
pend
##xb
##amivir
xyle
alfa
arginase
nyst
transcriptomes
363
mitigation
pks
fluctuating
interchange
utilised
hemagglutinin
frontiers
fastest
##iki
hypersensitive
assault
##br1
virginia
swarm
##anter
##tizing
##embles
skipping
ply
injectable
dependencies
inevitably
mace
##oglitazone
hend
endocannab
akin
entorhinal
cyanide
raav
##ube
diminishes
adversity
ya
accepting
love
posteriorly
##relations
erroneous
ouab
##igene
aom
hitachi
fertilizer
quebec
craw
##anto
2010a
nkg2d
hospitalisation
spouses
spline
##issa
ptt
377
fungic
bradycardia
##antigen
boron
oliv
secured
efferent
repolarization
complained
cryopreserved
ert
dpa
preferably
ddt
##oba
##riers
1111
##rad
fide
s5a
##reatment
ots
##how
parkinsonism
##186
##uneus
improper
psychiatrists
pioglitazone
##anting
comparability
saxs
clinicopathologic
deformities
invaluable
##loxacin
chondrogenic
##obutyric
ifit
ns5a
##core
workshops
##alog
##998
unreliable
ambul
##bronch
bp1
deparaffin
mpm
alber
##ronic
##nae
apache
xylazine
parallels
351
flavivirus
hapmap
estimators
##opolymer
##prazole
newton
omim
rrt
cuv
corneas
pepper
mpl
horizontally
psychomotor
##zl
##rowing
##where
sulfon
oestrogen
gateway
neurovascular
neomycin
##obox
415
bronchodil
pdk1
ouabain
vortexed
substituting
lapatinib
deflection
##dk
hpt
epididymal
infertile
neat
associating
lined
hscr
reabsorption
mica
bounds
##embry
banks
chag
a27
expansions
wdr
##gin
sorbitol
quiescence
d8
heading
schooling
oropharyngeal
opson
knocking
conson
sunlight
transducers
extremes
##instein
wounding
neurofibrom
cgh
##retin
##iflu
endotracheal
polycystic
##atac
computers
denitr
followup
myelinated
genech
metad
extracorporeal
crick
isothermal
1k
ovariectomized
immobil
immunoglobulins
thereof
titres
noti
wo
psma
genuine
##serine
amps
ringer
shutt
##254
onwards
carcinogen
assure
downregulate
discourse
sily
intensively
##530
psii
addgene
sia
restrained
cantile
downs
##olo
companion
assembling
lewy
serogroup
beer
regenerate
fep
youngest
repulsion
pristine
nonun
polyploid
bert
pak1
retroviruses
photoshop
##inostat
schema
griff
spider
translocate
##gaag
competitor
pvc
invertebrate
thermost
manifests
##yseal
imprec
##inic
circrnas
hmga
esterase
propagating
molecularly
##odopa
bq
##bearing
cb2
indeterminate
##erational
violations
fug
hfp
451
metronidazole
334
updates
deoxyrib
calcitonin
bmal1
##yclone
pots
ago2
champ
upregulates
calcein
connects
additions
gust
dunc
qub
booster
edwards
seronegative
##gfr
##engers
preg
mantel
sae
successively
nanocomposite
intimal
opsin
##arboxylic
focuss
aversion
##209
styl
ethylenedi
chondroitin
ptms
uncondition
internationally
ambly
##ultures
hud
##fox
psychol
repressors
##noea
lanc
##257
353
bai
hunger
##orphin
kh2po4
##uta
##as1
advertising
##ishi
mlst
mre11
shade
obliter
hairs
##enge
clarification
##×10−
##heet
repr
lsd1
##ofrontal
pretest
s13
phosphates
407
denominator
erps
specifying
##alcoh
merits
hdm
##lessness
jer
p35
##uctal
wky
phagocyt
##ividual
loneliness
##ofovir
reyn
guess
streptozotocin
##ocytoma
##309
viewpoint
sulfonyl
hypop
sensations
axl
atri
agenda
houston
murr
rmsea
merging
arn
##ospheres
olanz
##assa
exams
intracellularly
landing
nvp
unambiguous
##266
cafs
confluency
##ocs
##itrite
hers
10x
dnmt3
nonsmok
sage
cohab
reversing
##ocratic
transection
398
tung
rca
armon
zon
8th
impregn
pulling
uta
flagella
lamellip
continental
routines
##c5
rbm
##ospasm
psychotropic
immobility
##cephaly
##heresis
dissociate
precluded
photobleaching
implantable
##ozoite
##ophylline
benzodiazepines
##child
gynecologic
##oly
##olumab
##1s
##yline
posttreatment
##ughters
e11
myofibr
preformed
discour
tetramers
heel
rs7
sss
anticonvuls
sorgh
phox
intervertebral
ohio
##oria
angpt
p15
compaction
acknowledges
ptm
rehydrated
##odipine
reconc
mpi
t47
##apillary
faint
klein
olanzapine
administrated
distortions
sirt3
synchro
clonidine
##uder
##etan
psf
packet
pcsk9
##oreceptors
##statement
cryopreservation
##uba
##itarian
##aks
desal
northwest
intestines
psoriatic
cardior
vasoactive
##ifers
gx
##237
trka
##heets
abscesses
stayed
bibli
conduit
dst
##enth
influenzae
##aws
nivolumab
radioimmunoassay
9c
wnt5a
laem
conceptually
quoti
workup
fgf23
books
gordon
sympath
lunch
imagine
k4
thresh
pkd
##olon
clips
knot
baculovirus
coreg
sulfated
tdtomato
##missions
cx3cr1
##engine
##173
al2o3
##olytica
undetected
##lofenac
##actam
globe
hamb
monoxide
enthalpy
##ctg
unexposed
layout
narratives
igf1r
rearranged
advocacy
##roll
motives
unrecognized
iatrogenic
##181
granulomatous
pkb
usd
subclasses
anterograde
##yglucose
##kinesia
bcva
vacuol
##222
mere
undefined
11a
##prs
isopren
cloth
stereo
msh2
##beck
michaelis
advocate
##lut
editors
viz
tough
maz
hydrolytic
flavor
##acon
enantiosel
##zee
cdp
ultrastructure
pkcδ
mathematics
menarche
cxcr3
prominently
footpr
gathering
##o5
ingenuity
isopropanol
feng
premise
occludin
allergies
levodopa
##ugr
366
anaphylaxis
fsw
pervasive
slurry
informant
infestation
eigenvalues
##agner
synech
characterizes
flick
mn2
syntaxin
ferrous
pharmacia
spectrometric
syncope
dexmed
appealing
venus
radii
amphip
binder
##800
##id50
rhizosphere
##iflozin
##array
##dex
##−cd
brl
oncologists
flavin
lasso
venn
trh
610
hmw
##izyg
670
##architect
terminate
##ropyr
concatenated
flare
kyph
appendicitis
dissimilarity
##gren
ultrafil
vinculin
cutoffs
reversibly
commenced
microliters
jen
∼0
doubly
lacc
##ch1
conceptualized
costimulatory
rtk
continent
65°c
dus
##161
passively
##acetamol
naphthal
spf
αβ
eczema
il1
##ortisone
unwinding
372
vene
thirdly
c14
eqs
boosted
bacteroidetes
dcr
mmp2
microscopically
##odys
##itrate
4s
##505
##users
tfr
antidiabetic
nondiabetic
microorganism
##interpre
##oi
hib
e1a
mea
55°c
yuan
planktonic
diuretic
waking
##odine
regressed
##404
##pton
##bus
atherogenic
armonk
##vii
neuropeptides
milest
h6
iad
greece
una
##arib
putatively
hyclone
ino
∑i
leyd
ina
forget
cba
dexmedetomidine
vk
duck
perpet
amyotrophic
oxidants
genic
recurs
146a
chcl3
exponent
dispensed
bregma
impurities
##ucting
cpu
filtrate
fertilized
##ardium
##arious
muss
##qq
paroxys
preparative
dispersive
##otyrosine
krt
##ospores
##elsen
mtc
accent
retinoid
##1b1
eosinophilia
koch
pyre
##idial
##othermal
ccl5
caveolae
arrived
municipality
agrobacterium
##enzymes
cyano
multiplic
succ
thiamine
352
oac
antiangiogenic
daughters
dysm
##ocent
invad
yag
reinstatement
llo
uninj
stev
exceptionally
fluo
durability
arp2
ornithine
lacr
hhs
486
##mli
tok
##ocyanin
349
impose
##ystalline
turkish
##phox
buildings
flattened
liz
##ansas
##esters
##emide
superco
##b6
cellularity
phenyle
hyperoxia
##ococc
acinet
##othec
idh
gata3
conventionally
threatened
plt
bry
##ximal
nonadher
347
haplogroup
ercp
346
centrosomes
undertake
army
hydrothermal
cereal
complementarity
hypothesised
sterilization
counterbalanced
hubs
vagina
macros
purify
cdkn2a
apoc
pso
boosting
##aus
##p6
infantile
coexisting
sorghum
opti
##aviruses
exhal
garden
pcrs
##gy
##amy
mites
nadir
contradic
supramolecular
≥50
ndr
risperidone
morpholino
##akin
optogenetic
conical
##adex
stis
yosh
looks
nox2
rj
amsterdam
2014a
##lysis
sewage
bisexual
calm
crypts
biotec
##ados
welch
aberration
hallucinations
##ropic
lawr
resta
amc
conversations
##ittance
##lyp
paracetamol
refseq
immunoblotted
tgt
separations
minimizes
isomerization
peep
schneider
##ophyte
carcinogens
prdm
enforcement
##onit
bmdms
##onasal
borrel
transporting
gpc
aphid
sacral
heterotr
srm
metabolizing
a2a
tee
fronto
##foot
ascertainment
pox
gastrin
cgc
phenylephrine
dormant
pacap
3j
glomerulonephritis
##acrine
opiate
##rf
jl
zfp
ophthalmology
tsc1
therein
hypon
348
mentors
356
involunt
spatio
btk
restorations
legiti
directors
inquiry
##171
mumol
apic
nox4
vander
##coal
tyrosinase
stalled
##ipramine
##bands
##me1
directive
unselected
microdiss
##oidy
transactiv
##axanthin
claud
solvation
japonica
vigilance
unevent
##dine
##ologia
edc
nonsynonymous
mucous
##irr
entails
raphe
fcc
guest
continually
gibbs
##weigh
recoveries
lipogenesis
##tigens
undetermined
provoked
nyha
##otracker
##acle
tep
inadequ
unobs
interobserver
pco2
hyphal
duncan
anchors
##dong
hsp27
376
satisfying
synchrotron
00001
invag
perez
r8
forcing
scheduling
firmly
antiepile
495
##uw
b0
##timore
fluoroscopy
varian
ding
##opram
palatal
shp2
mips
lacun
proficient
633
anteriorly
scalar
k5
concussion
phantoms
ultraf
mycn
microdialysis
phytoplankton
ils
##arbox
354
lst
##azen
myocarditis
sonography
pwv
##iously
southwest
mitch
##ygb
wille
ectoderm
##358
discretion
syntactic
retrotranspos
acinetobacter
050
asymmetrical
stakeholder
##uccin
zamb
pige
arguably
##odet
icv
dimeth
audience
ipr
hads
seman
aso
unemployed
##k6
accompany
socs3
raj
hcd
359
enterpr
minip
bang
upar
laemmli
fms
##vhd
bioanalyzer
pm10
##arius
##uel
financially
credibility
thawing
reint
cryptospor
f5
ependym
vil
##aglutide
thiaz
colistin
pcg
##etus
##italopram
##ternal
legends
cycler
##oglutarate
seattle
##aming
postc
##bel
##bind
pkm2
interspecific
glycated
myh
occupations
harder
402
##ovs
facebook
lna
batteries
−70
tunn
integrase
xylem
prosocial
replicon
dcx
##pn
ebpα
##allic
##oxygenation
kaz
perimeter
diction
tils
##imbic
benzodiazepine
##enne
laf
leaflets
inject
2008a
pmf
##474
meteorological
assemblages
pib
u251
recr
peroxyn
spd
dwarf
owned
recovering
granulomas
##345
423
deplete
deacetyl
sanch
antimalarial
astig
baltimore
answering
intensified
##onically
intricate
neurochemical
byproduc
mω
circumc
ppa
##amyl
##illes
diclofenac
hic
##mers
100×
methacrylate
33342
##osulf
##141
orific
##odone
diap
##agenic
hypomethylation
rech
##station
950
##raction
−8
##ffs
##albuminuria
vamp
##ifolia
botulinum
unresponsive
cd62l
hank
uva
mainland
intert
fbp
##statin
orbitrap
cachex
primes
syndromic
358
vertebra
diminishing
overgrowth
hilden
cd5
fvb
tetras
licl
epidermidis
misf
holm
inatt
bivalent
1alpha
ignore
eos
##192
corpor
noradrenergic
455
nev
restaur
collins
semiquantitative
##13c
##unate
replications
rack
##ahan
aseptic
429
##oxidation
##ecium
ipd
suvmax
antioxidative
##rag
fgf21
##208
##oprop
##endothelial
azo
ata
thiols
contracted
ectodomain
yin
noticeably
oxidoreductase
flagellin
tfp
rarity
kernels
matured
hdac6
##ogalact
prox
404
##ochal
merge
unresectable
loosening
phb
multicentre
wss
translates
##urbed
##actyl
alto
listing
##ochondral
##tek
utp
proposals
##tb
microinj
extractions
ricin
##algae
exchanger
bentham
opr
sbs
##weighted
glacial
angry
stretches
##g0
mrd
t3ss
neocortical
bog
credit
##echs
iec
reminder
eman
acidity
necrotizing
mrm
##1011
##ipin
milan
larynx
jnk1
portugal
ensembles
esr1
stepping
butt
congo
##phenol
lynch
serp
mnps
discordance
functionalities
##acetamide
##grass
e18
thresholding
##398
photosensiti
368
pneumothorax
contraindications
charcoal
scanners
arteriovenous
microcirculation
chemoradiotherapy
mvc
##owitz
funders
s4b
pao2
visuospatial
trisomy
spectrin
##224
travers
synovi
##ything
##war
refriger
autoin
##oblastomas
riv
##bury
calv
quadrants
alkylation
commence
##ounce
gla
hematology
pruritus
ftsz
everything
fcm
categorised
atg7
distinguishes
parti
ectopically
jiangsu
readmissions
histi
1°
leydig
wnt3a
##iformis
guardians
toolkit
535
ocs
p70s6
subdomain
rochester
mitigated
e9
entom
411
αi
catastrophic
##othy
steat
accountability
sod2
cardinal
queried
503
##orna
##days
chimpanzee
biv
cyp1a1
pp2
overhang
##iday
##omyelin
cachexia
nucleolus
gdna
xls
##osi
dysplastic
elapsed
aligning
u01
##ildenafil
serologic
##insu
rigorously
##avity
neurobe
##cholinesterase
cry1
ssd
##cf
sequestered
lawrence
mathworks
##enan
jordan
elevate
homeobox
##withstanding
greek
extrah
invalid
monocytic
subsection
##244
entrain
hp1
maneuver
privile
nx
mmf
floxed
opposition
forelimb
##globulin
##tools
invariably
neonate
notwithstanding
lord
initio
369
##w7
wagner
cash
nde
##hd1
ges
oryzae
communicable
expressive
##iaxial
ginsen
##vol
retarded
pans
mik
disabling
fcγri
##196
##trexone
##urrent
prmt
certification
sinensis
vegfa
ebov
disposable
sildenafil
##asth
deriving
fgfr2
collar
transmitting
plethora
shelter
sow
burlingame
overrepresented
microdom
##1000
##ropylene
##tinine
multiplexed
[...]
